[PAD]
[UNK]
[CLS]
[SEP]
[MASK]
"
'
(
)
+
,
-
.
0
1
2
3
4
5
6
7
8
9
;
[
]
a
b
c
d
e
f
g
h
i
j
k
l
m
n
o
p
q
r
s
t
u
v
w
x
y
z
λ
##e
##x
##y
##l
##p
##r
##o
##a
##b
##h
##s
##n
##i
##d
##u
##t
##f
##z
##m
##c
##6
##0
##4
##2
##q
##8
##1
##λ
##5
##g
##9
##3
##v
##7
##k
##w
##j
##yl
##et
##en
##ro
##eth
##ethyl
##in
##xy
##id
##hen
##an
yl
##henyl
di
methyl
##yd
##ydro
##phenyl
##ol
##am
##az
##oxy
##lo
##ydroxy
##methyl
##ino
##ri
ox
##rop
##th
##ox
##enz
##ar
hydroxy
##at
##ene
##ide
##azol
##arb
##ethoxy
##idin
##on
ac
tri
benz
##amide
##yr
carb
##ate
##hlo
oxo
phenyl
am
##hloro
##ul
eth
##yc
##yclo
##ulf
methoxy
##idene
prop
amino
##hydro
dimethyl
10
2s
chloro
acet
##etr
##ne
pyr
##ano
one
##hi
thi
11
carbox
##ut
ethyl
2r
##cyclo
##amino
##hydroxy
##prop
##anyl
en
##ex
benzo
##ent
12
tetr
##ulfanyl
##ec
##rom
oxy
##lu
13
##luo
##one
##ine
##luoro
14
1h
##ic
3r
##ph
##dec
##idine
##er
##ahydro
##ur
4s
acid
methylidene
##benz
##it
##ane
dihydro
5s
5r
17
carboxyl
6r
3s
15
16
##pyr
##um
methoxyphenyl
sulfanyl
##rol
hydroxymethyl
##phen
##thi
diox
4r
##oyl
##rim
##yrim
##pent
but
dihydroxy
##onyl
##uran
dione
##adec
thiazol
##per
##iper
##di
methylphenyl
##methoxy
chlorophenyl
##uin
fluoro
hex
cyclo
##azin
##ani
##romo
##but
##ep
propan
##hex
carboxylate
##ac
acetamide
bromo
pyrim
nit
##mid
##al
##dol
carboxamide
##os
##hrom
##uinol
nitro
dic
01
##acyclo
dioxo
tetrahydro
trihydroxy
pent
##ept
oxan
##anoyl
fluorophenyl
dimethoxy
pyrrol
##ido
az
##as
ium
##hromen
02
1r
1s
##ct
##propyl
##ophen
furan
##sulfanyl
##oxan
trimethyl
ethoxy
pyridin
6s
##or
ylmethyl
piper
phen
##oate
##fluoro
##is
##sulf
##imid
##lino
##aph
triazol
acetyl
dichloro
##acet
butyl
##aphth
in
##adeca
enyl
sulf
oct
18
##propan
benzyl
hept
##aphthal
##anoate
carbam
indol
propyl
oxa
pyrimidin
acetate
##uinolin
trifluoro
##amethyl
benzothi
##piper
##pyrrol
##anilino
dimethoxyphenyl
nitrophenyl
##furan
##azole
##osph
##anoic
##carb
ylidene
##itri
##le
##itrile
cyclohex
sulfanylidene
##phenoxy
##olan
##yano
diaz
bis
benzamide
thia
19
##amido
cyano
##anone
thiophen
thiazolidin
benzodi
ol
##chromen
##aphthalen
##etracyclo
trifluoromethyl
carbonyl
##anium
hydroxyphenyl
2h
##atri
##atetracyclo
tetra
pyrimidine
cyclopent
dichlorophenyl
methylbut
##ride
##orph
##atricyclo
##ert
amine
acetamido
##azine
##thr
##indol
##benzoyl
##orphol
4a
##icyclo
##imidazol
methylideneamino
meth
carboxylic
benzodiox
benzoate
tert
##onitrile
oxoethyl
bromophenyl
chromen
##ydr
##anthr
##sulfon
##mino
9s
pyrrolidine
##othi
methylsulfanyl
do
##uinoline
##iro
dimethylphenyl
##piro
##diazol
3a
morphol
diethyl
sulfonyl
benzofuran
dimethylamino
##oic
benzene
20
ph
##bicyclo
dien
7s
7r
##benzamide
6a
enamide
21
##pyrim
cyclohexyl
quinolin
8a
##cyclohex
hexahydro
phosph
naphthalen
morpholin
##uinazol
03
4h
oxolan
phenanthr
imid
8r
##so
9r
enoate
dodec
##oxyphenyl
##aen
##hept
pyridine
5e
5z
tetramethyl
5h
##pyrazol
benzodioxol
##acetyl
butan
dec
22
3h
benzox
##ea
carbonitrile
8s
ethoxyphenyl
piperidin
##sulfonyl
##acetamide
10s
thiazolo
##amine
an
##benzoate
non
methyloxan
phenylprop
##quinolin
##abicyclo
piperazin
10r
04
oxyoxan
##rolo
cyclopenta
##benzene
phenylethyl
##uinazolin
phenoxy
diphenyl
iso
##enyl
imino
23
##eno
phenanthren
##il
oxobut
carbamoyl
##osa
chlo
##carbam
##benzo
##pentacyclo
##cyclopent
enoyl
##sulfonamide
hydro
ene
2e
triazolo
##rophen
##oryl
##azanium
benzothiazol
benzimidazol
##pyrimidin
##hydr
##piperidin
thiadiazol
dioxopyrrol
13r
pyrazol
azanium
diazin
##iso
##piperazin
##carbonyl
oxochromen
14s
##aene
##azo
oxymethyl
##azatetracyclo
##do
trimethoxy
propanoyl
13s
##ideneamino
##urin
carboxy
oxazol
24
ethanone
##arbox
##phosph
acetyloxy
tetradec
quinoline
trien
propanamide
##rophenoxy
indole
methylpropyl
hexadeca
##ophene
##br
et
diol
##spiro
##othioyl
methylpent
##ridec
2z
propanoate
imidazol
benzoyl
ethenyl
octahydro
pyrrolidin
heptadeca
pyrrole
##anol
##azinyl
hydroxyethyl
##oct
011
trione
methylamino
4ar
methanone
##quinoline
12s
17r
##xal
##uino
##pyridin
##uinoxal
thiophene
methylprop
##cyclopenta
phenylmethoxy
diazinane
io
dihydropyr
ani
ylphenyl
anilino
##aphthalene
tridec
25
##bs
4as
ylethyl
hydr
##tetr
11r
##anedi
dioxa
7a
##phosphoryl
14r
benzoic
quinazolin
oxopropan
oxane
propanoic
hydroxypropan
dicarbox
triox
6ar
012
26
11s
diethylamino
oxopent
12r
ur
8ar
urea
carbamate
##oxolan
3as
acetic
##uro
iodo
quinoxal
##urea
triol
diamino
carbamothioyl
pyrrolo
##isoindol
##olo
methylphenoxy
##butan
3ar
tetraen
cyclopentyl
05
tric
tetradecahydro
17s
##tri
##imino
##mine
##meth
dihydroxyphenyl
##ndec
hydrazinyl
##hloride
##azep
##naphthalen
trimethoxyphenyl
27
##apentacyclo
##hydraz
ylmethylidene
oxadiazol
6as
trideca
##carbamoyl
diazenyl
yloxy
tetraene
ethylphenyl
##cyclohexyl
piperidine
##ir
tetrazol
##thieno
##hydrazide
octadec
hexadec
piperazine
9a
dodecahydro
difluoro
##sil
azabicyclo
##pyrrolidine
##propanoyl
ic
trihydroxyoxan
methylanilino
benzothiophene
##ium
##chloride
sulfon
diamine
phosphate
##amoyl
triazin
cyclopropyl
##hromene
yn
purin
##enitrile
phenol
pentamethyl
##butyl
pyrazole
8as
##anamine
pyran
benzenesulfonamide
penta
##furo
16s
dicarboxyl
12a
28
##de
triaz
methylhept
oxido
ind
##bromo
triazole
decahydro
undec
diazatricyclo
##oni
013
butylphenyl
15r
##hyd
6h
9h
octadeca
##orm
methylpiperidin
##quinazolin
##anamide
enoic
phenylpyrazol
benzoxazol
15s
16r
triazatetracyclo
##alde
##aldehyd
##aldehyde
diene
ylamino
##ont
##acont
30
##acetate
##tetrazol
hydrochloride
trichloro
29
4e
##diazole
hexaen
isoquinolin
form
pentaen
##thiophen
naphthalene
thione
fluo
##gen
##azepin
##olane
dioxoisoindol
chloride
##purin
pyrano
ylsulfanyl
thiazole
dibromo
methylsulfonyl
##benzenesulfonamide
##pyrido
benzothiolo
pyrido
##imidazole
methoxyphenoxy
azoni
azatricyclo
##propanamide
enylidene
##butanoyl
dimethylphenoxy
dicarboxylate
##hexacyclo
##imidothi
pentyl
imidazo
chlorophenoxy
##ant
##silyl
##dium
6b
thio
hexaene
##aspiro
##oxane
##anoyloxy
##fluo
butanamide
dihydroxyoxan
dioxopyrrolidin
methoxyethyl
dodeca
##animine
6e
14b
##pyrrolo
##acetyloxy
sulfonylamino
##pyrimidine
010
31
benzenesulfonyl
methylfuran
oxazole
##ethenyl
##carbonylamino
methylpiperazin
##ooxy
tetrac
ethanol
trimethylsilyl
5a
18s
10a
tetrahydroxy
thiazolidine
oxapentacyclo
phenylmethoxyphenyl
methylbenzoyl
phosphoryl
hydroxypropyl
hydroxyphosphoryl
propoxyphenyl
hexamethyl
bicyclo
##thiophene
##init
enenitrile
dienyl
quinoxalin
4z
dimethylazanium
##pyrazolo
chloroethyl
oxobutan
methanol
##aconta
nonadeca
spiro
triene
##ohydrazide
##imidothioic
tetrazatetracyclo
##indole
##propane
thieno
quinoxaline
pyrazolo
diethoxy
methylpyridin
phosphon
##benzimidazol
##urine
pentaene
##piperazine
diaminomethyl
sulfamoyl
oxoprop
9b
##naphthalene
##pyridine
##sulfonate
sil
diazatetracyclo
hexyl
oxopropyl
heptaen
##imidazo
chromeno
ethylamino
hydrogen
icosa
benzodioxin
methylbutyl
ylpropyl
##pyrrolidin
##cyclohexa
##anoylamino
ynyl
benzodiazepin
butanoate
hexa
##pic
##iz
dihydropyrano
3e
##anil
##aniline
##azoc
doc
015
pentadeca
##piperidine
##uinazoline
7h
##anide
##ethanone
ethylidene
ylsulfonyl
heptamethyl
ylmethylideneamino
##ahexacyclo
propanoylamino
methylpentanoyl
octan
phenylpropan
dimethylpyrrol
difluorophenyl
methanimine
##ropyr
dinit
oxir
##azocin
##benzoic
##roprop
cyclohexane
diazabicyclo
dioxopyrimidin
carbaldehyde
32
iminomethyl
trihydroxypropyl
##oxo
propane
aminopurin
##chromene
7ar
formyl
diaminomethylideneamino
dithi
tetraz
##methanone
##triazol
9ar
33
##odium
propoxy
ethylsulfanyl
tetradecahydropic
methoxyanilino
methane
benzimidazole
##ato
azep
enoxy
chromene
trioxo
triazine
18r
butoxy
phenylsulfanyl
dichlo
##acosa
chlorobenzoyl
phenylacetamide
methylpropan
##morphol
10b
##iline
tetradeca
thiourea
benzothiophen
phenylbutan
aniline
yloxyphenyl
methoxycarbonyl
icos
methylbenzamide
hydrazinylidene
##phenol
35
11a
triazatricyclo
benzoxazin
dimethylanilino
7as
methylbutanoyl
6z
##anedioic
dinitro
phenanthrene
##sulfonic
12ar
34
methoxybenzoyl
014
08
ylprop
carbamoylamino
nitrobenzamide
oxadiazole
phenylphenyl
##ecarbox
azatetracyclo
thiadiazolo
diazinan
quinazoline
oxopentan
##anedioate
iodophenyl
trimethylazanium
isoquinoline
methylheptan
##imidoyl
##imidazolidin
morpholine
##icosa
sodium
chloroanilino
imine
oxatricyclo
ylacetamide
oxolane
oxopyrido
oxopentanoic
09
##ethi
##hydrazinyl
##yn
dihydrochromen
hen
##carbamate
##sulfamoyl
##propanoate
heptane
cyclohexan
##ind
19r
fluor
dimethylpyrimidin
sulfanylacetamide
##hexan
##octa
##acene
oxobutanoic
benzylsulfanyl
sulfanylmethyl
##idazin
##pyrrole
azapentacyclo
methoxymethyl
heptadec
##acen
##deca
phenoxyphenyl
oxabicyclo
oxoethoxy
19s
6br
##acos
isoindole
acetylphenyl
##dam
##damant
diacetyloxy
tet
ethoxycarbonyl
##othio
dihydroindol
fluoroanilino
9as
##ecarboxamide
pyrimido
butanoic
benzodioxine
sulfate
decan
07
sulfonamide
##hepta
aminophenyl
inden
nonadec
imidazole
##thal
36
pentadec
carbamimidothioic
14a
##anthen
docosa
carbohydrazide
##anediamide
methylbutanoate
tris
dihydrobenzo
anthr
dicarboxamide
dioxolo
ethane
dihydroxyamino
##iminomethyl
9z
azepan
carbonylamino
adamant
diaza
tetrahydropyrrolo
benzamido
06
10e
nitrophenoxy
methoxybenzamide
methylbenzene
trimethylphenyl
dihydroxyoxolan
016
##isoquinolin
dicarb
ethylideneamino
dioxatricyclo
purine
benzoxazine
##pentan
##ecarb
pentan
dihydropyrazol
dichlorophenoxy
fluorobenzoyl
ylmethylamino
phenylpropanoyl
henicosa
dodecahydrocyclopenta
##pyrazole
##morpholin
12as
dioxatetracyclo
methylquinolin
phenylpropyl
##hexyl
trimethylsilyloxy
naphth
butoxyphenyl
azaniumyl
##ynyl
nonan
acetyloxymethyl
tetrahydrobenzo
aza
37
3z
methylbutan
benzylidene
##propanoic
pentanoyl
dihydropyrrolo
pentanoic
##ecarbonyl
phosphonooxy
##cyclohexane
benzotriazol
14bs
diazapentacyclo
phenylchromen
pentazatetracyclo
tetradecahydropicene
##ridin
##propoxy
##butanoate
ylphenoxy
methylsulfanylphenyl
##animid
butanoyl
methoxypropyl
decahydrocyclopenta
hepta
3ah
##izin
nitroso
oxopyrrolidine
39
hydrox
##phenanthr
##carbamoylamino
azoniatricyclo
7e
ethanamine
indene
methylthiophen
38
pyrazine
##uan
ylpyrrolidine
##uanidine
##ylamine
5ar
oxatetracyclo
##non
dimethylpiperidin
##hydrazinylidene
oxothieno
heptan
enoxyphenyl
nitrobenzoate
14z
phenylpiperazin
tricyclo
##benzyl
11z
11b
tetraox
pentahydroxy
carboxymethyl
sulfo
##acetic
methylpropoxy
carbon
##λ6
λ5
furo
12z
##cy
methylindol
##epin
##butanoic
##carbamothioyl
hydroxylamine
methylbenzenesulfonamide
oxirane
cyclopropan
14br
ylmethanone
oxyphenyl
oxypropyl
##ethanamine
azanide
diium
oxychromen
10ar
oxoindol
thiadiazole
##pyran
benzonitrile
##cyan
tetradecahydrocyclopenta
##el
ylpropan
##carbox
8z
##λ5
oxocyclohexa
dicarbonitrile
4b
oxospiro
##diaz
##othioamide
silyl
##hydryl
dibenzyl
017
methylbenzoate
##romide
fluoren
phenylacetyl
benzhydryl
cyanophenyl
##fluorom
1e
triphenyl
oxyacetyl
##inyl
pentanoate
phenylethenyl
heptyl
adamantyl
##heptacyclo
##quinoxal
##purine
##pyrano
methoxybenzoate
##oxir
##anethi
##io
dimethylpyrazol
hydroxymethylidene
silane
chloromethyl
##azepine
ar
##thio
olate
oxoquinazolin
dichloroanilino
benzylamino
##silane
##urino
##octadec
carbothioamide
21s
octane
##ropyridin
benzoxa
thiol
octyl
10z
benzodioxole
##ospiro
dimethyloxan
##tetradec
9bs
phosphane
cyclopentane
oxobutanoyl
heptanyl
nitrobenzoyl
##heptyl
##heptan
oxidophosphoryl
10as
##pentyl
triacetyloxy
azoniatetracyclo
methylpentanoic
co
##izine
oxycarbonylamino
ylethanone
cyclohexylamino
##fluoromethoxy
##undec
methylcyclohexyl
9br
bromophenoxy
6bs
##thiolan
benzothiazole
8e
xanthen
methylthiophene
diethoxyphenyl
tetracyclo
##isoindole
##tert
##uleno
##cyclopentyl
trimethylazaniumyl
##dodec
decane
sulfonic
14ar
dimethylocta
13a
dioxolan
benzoxazocin
iod
diethylazanium
##thalazin
naphthyr
21r
oxide
##fluoroprop
hydroxypropanoyl
methylpropanoyl
##azet
carbamothioylamino
sulfanylideneimidazolidin
acetamidophenyl
tetrahydronaphthalen
7z
ditert
##ter
##cyclopropane
8b
phenylpropanoate
oxazolidin
phenylmethoxycarbonylamino
##rophenol
##pyrimido
oxobutanoate
9e
sulfooxy
5as
dibutyl
11ar
tetramethylspiro
##dithi
butylamino
20s
##ys
20r
propylamino
benzofuro
hexanoic
phenylmethanone
##hexadec
dioxabicyclo
##hr
methylsulfonylanilino
##hrys
pentaz
dipropyl
acetonitrile
tetrahydroquinoline
##atriaconta
trimethylcyclohex
imidazolidine
methylchromen
dioxapentacyclo
hexanoyl
oxyoxane
fluorophenoxy
sulfanylidenepyrimidin
ethoxyanilino
##rone
tetrone
guanidine
chlorobenzoate
##aphosph
hexaz
cyclohexa
phenylpropanamide
ylacetyl
##quinoxalin
oxyethyl
##onaphthalen
azahexacyclo
azido
dienoate
##ethane
methylpyrimidin
docos
dicarboxylic
10br
10bs
##ron
methylspiro
thiadi
sulfanylethyl
##oxymethyl
dihydrogen
dihydropyrazolo
heptaene
##othioate
enedi
fluorobenzamide
butylphenoxy
##butanamide
dioxoisoindole
tetrahydropyrazolo
methanesulfonamide
oxopyrimidin
40
##sulfinyl
22s
hexanoate
##diazenyl
carboxyethyl
aminoethyl
methyloxane
##tridec
octa
benzohydrazide
##imidamide
benzylpiperazin
hexahydrocyclo
butanoylamino
methanamine
methylazanium
tetradecahydropicen
oxiran
##din
##dinitrile
dithia
##azanide
sulfamoylphenyl
methylpropanoate
pyrazin
ethylphenoxy
42
octahydrobenzo
phenylbut
##amethoxy
carbazol
##ulen
dimethylmorpholin
bromobenzoyl
##sium
ylideneamino
##tricyclo
ethylanilino
sulfanylacetyl
hydroxyoxolan
nona
1λ6
phenylpyrrolidine
##idazine
methylbenzo
13z
14e
##acyl
cyclohexen
trioxa
oxochromene
carboxylato
phenacyl
ylmeth
nitrofuran
chrys
anthracene
phenylthieno
nitropyr
methoxycarbonylphenyl
octamethyl
hydroxybutanoyl
pyridazin
22r
##anthracene
sulfonate
methylpyrrol
octadecan
azaspiro
hexahydrobenzo
dimethylspiro
isochromen
tetrol
deca
##azino
ylmethoxy
octaen
quinol
phenylmethyl
trioxatetracyclo
ethylpiperazin
benzoxathi
##icos
methylpyrimidine
anthracen
hexahydronaphthalen
pic
##inum
##iridin
cyclohepta
oxacyclo
phenylpropanoic
##pyridazin
dimethylbutanoyl
ethynyl
chloropyridin
##anid
11e
5b
##sodium
##cyanato
##ero
phenylacetate
##oxiran
oxopentanoyl
cyclopropane
11as
##cyclopropyl
16z
oxazocin
acridin
##tetrazolo
chloroprop
##tetracyclo
methylbutoxy
octahydrocyclopenta
41
methyloxolan
##isoquinoline
nonane
acetohydrazide
dihydropyran
##carbon
methylpiperazine
dioxaspiro
benzylpiperidin
tetracos
dihydropyridine
methoxynaphthalen
##azetidin
##butane
trioxapentacyclo
oxyacetamide
##ethanol
methoxyphenol
enylsulfanyl
cyanoethyl
phosphono
018
##ylate
dihydrochloride
13b
24s
tetrachloro
dodecan
phenylpent
##carbonimidoyl
iron
##cyclohexan
##morpholine
oxobutyl
butane
ylbenzamide
##ric
benzotri
43
oxycarbonyl
phenylbutyl
benzothia
##pero
methylbenzimidazol
##thiourea
trienyl
dienoyl
hydron
undecane
hydroxyethoxy
##sulfonamido
butanediamide
##octyl
oxofuro
propanedinitrile
undecan
dodecyl
12e
phenylimino
cycloheptyl
hexan
tetrazabicyclo
tetramethoxy
bromoanilino
methylbutanamide
tetrahydropyrido
diazaspiro
isoindol
enoyloxy
naphthyridine
phenylurea
##ridine
##dodeca
pentafluoro
13e
pentanedioic
dioxothiolan
44
methylpiperidine
##pyrazolidin
dihydroind
11br
##carbazol
trihydroxyoxane
pentacyclo
tricosa
hydroxynaphthalen
##benzofuran
propylsulfanyl
tetrazatricyclo
oxypropan
dioxolane
##bal
##balt
aminomethyl
dihydroquinazolin
##imidazolidine
iodide
1a
##acridin
nitrobenzene
##oxa
phthalazin
dihydroxyethyl
oxazolo
methylhex
##kis
##erc
##tan
ylmethylsulfanyl
bromide
as
2λ5
oxooxolan
phenothi
##methylidene
thiazin
dimethylaniline
cyclopentylamino
##teridin
methylbutanoic
phenylthiophene
trioxospiro
##tann
oxoquinoline
purino
methylbenzenesulfonate
phenylmeth
cyclopropylmethyl
##phenanthrene
phenylbenzamide
pentoxyphenyl
butanedioic
46
##iodo
dihydroimidazo
##thioyl
##lat
##inothioyl
15z
de
##latinum
45
##odithi
##cyclopentane
oxypropanoyl
enoylamino
dimethylchromen
cobalt
hexadecanoyloxy
sulfonylanilino
##benzaldehyde
carboxypropanoyl
tetrafluoro
##imidothioate
dimethylbenzamide
methylpentanoate
butylsulfanyl
##phenanthren
##peroxy
azet
trichlorophenyl
sulfophenyl
ylpropanamide
methylpropanamide
hydroxynaphthalene
benzoyloxy
##pper
phosphonooxyoxolan
hexane
hexadecahydro
tetrahydroisoquinolin
enedioic
nonadecan
butyltetrazol
##hexadeca
diazoni
pentacosa
fluorobenzoate
propanenitrile
disodium
quinolizin
triethyl
dienoic
diazep
cyclohexanecarboxamide
##anthracen
tetrahydrofuro
methylacetamide
phenoxymethyl
dioxane
oxahexacyclo
trifluoroacetyl
methylimino
methoxychromen
carbazole
dimethoxyanilino
cyanoprop
carbamimidoyl
diethoxyphosphoryl
carbothioyl
methylpyrazol
5br
undeca
difluoromethoxy
bromobenzoate
aziridin
dimethoxybenzoate
##aphtho
ylsulfonylphenyl
23r
hexadecane
25s
##isochromen
methylimidazo
oxyacetate
methylquinoline
pentanamide
formamide
decyl
phenylethanone
bromofuran
##carbamimidothioic
dihydrofuro
##bromide
ylurea
dioxide
cyclopropanecarboxamide
dihydroxypropyl
tetradecan
##oxolane
hexazatricyclo
nonyl
hydroxyimino
dimethylthieno
sulfonato
trihydroxybenzoate
##acosan
##ole
phenylpyrazolo
##inic
benzaldehyde
##anidyl
propanedioate
dimethoxybenzamide
dinitrophenyl
dimethylpyridin
##benzimidazole
dicyano
benzylideneamino
23s
hydroxyethylamino
##ot
benzoxathiazocin
##anth
methylimidazol
##otas
##otassium
tetrahydrocyclopenta
24r
methanesulfonate
tr
nitrophenol
tetrahydrop
cyclohexylmethyl
13ar
sulfanylpropanoyl
##azuleno
cyclopentan
benzoxazole
tetracene
disulfanyl
##fluor
ylspiro
tricarbox
oxopyran
##naphtho
methylsulfanylbutanoyl
hydrate
methylcarbamate
hydroxyoxan
sulfonylphenyl
dodecane
nitropyrazol
azuleno
cyanomethyl
pentaoxo
triaconta
methylcarbamoyl
##othioic
dimethylhept
ylpiperazin
020
indazol
trinit
methoxyquinolin
##quinol
oxobenzo
hexacosa
tricarb
ethoxyethyl
trifluoromethoxy
019
trihydroxyphenyl
carbonate
hexaoxo
hydroxyamino
##onic
fluoride
tricarbonitrile
hexahydrofuro
ylsulfanylmethyl
##odithioate
oxoazanium
cyclopropanecarbonyl
phenoxyethyl
8h
phenylpyrazole
difluoromethyl
oxohept
dihydropyrimidine
##animidamide
hydroxybenzoate
pyridazine
phenylpyrrolidin
bromomethyl
dimethylpropanoyl
oxamide
trichloromethyl
dioxan
tetracosa
##hexanoyl
hydroperoxy
##azacyclo
ethoxyphenoxy
sulfonylpiperazin
enal
##aphosphin
##alen
diazahexacyclo
hydroxyacetyl
##ercur
bor
trihydroxybenzoyl
##hydrate
icosane
##dibenzofuran
##carbamothioylamino
phenylquinazolin
##ercury
phenylphenoxy
dimethylidene
##iden
ann
copper
47
hexahydropyrano
butylcarbamoyl
##octadeca
nonaen
oxoethylidene
triazino
hydroxyanilino
pentane
azoniabicyclo
dioxino
ethoxybenzoyl
##anoyloxypropyl
picene
pyrrolizin
benzenesulfonate
propylchromen
##methanamine
##yrin
##orphyrin
methylurea
dimethylindol
##octacyclo
acetyloxyphenyl
tetrakis
##ropyrim
sulfanylacetate
48
oxocyclohex
carboxybutanoyl
yloxypropyl
##ethynyl
##anethioate
4bs
dichlorobenzoyl
oxypropanoate
##quinazoline
##ethioate
##bor
indolo
hydrazine
##azon
hydroxyindol
chrysen
benzothiazin
dimethyloct
##achloro
dimethylthiophene
nonaene
nitroanilino
benzenesulfonic
##benzohydrazide
##phosphinothioyl
oxazin
trienoyl
tetraoxa
hexafluoro
benzazepin
##triaconta
##tannane
thiadiazin
##disulfanyl
hexanamide
ars
ethylsulfonyl
dioxospiro
dichloride
hydroxybenzoic
7b
##thia
hexahydropyrrolo
oxohexan
methylcyclohex
ethylpiperidin
phenylspiro
mon
ylsulfamoyl
tetrahydroisoindole
tetraoxo
aminoacetyl
hexadecan
##iod
10h
19z
##onium
aminoethoxy
phenylpiperazine
dioxoimidazolidin
tetrahydropurino
hexahydrocyclopenta
##azonin
cyclobutan
ylcarbamoyl
disulfonic
triaza
naphtho
##uric
sulfuric
hexadecahydrocyclopenta
dioxin
octaene
methylpyridine
oxopyrrole
aminopropanoyl
##acosane
##atooxy
phosphanyl
25r
thiadiazine
##aphthyl
bromothiophen
isochromene
##lum
15e
sulfonylazanide
hexahydrocyclodeca
1z
sulfonylpiperidine
benzoxazonin
sulfanylpropanoic
##then
methylsulfinyl
##oxanthen
phenylbutanamide
##xanthen
phenothiazin
benzothiepin
##ylidene
##kel
methylquinazolin
dimethoxybenzoyl
dimethylbenzenesulfonamide
##idenet
##acontane
hydroxybenzamide
##sothio
phenyldiazenyl
isothio
carboximidothioic
trimethylcyclohexen
4br
chlorobenzamide
hexoxy
##atetr
nitroimidazol
oxopentanoate
tetrahydroisoquinoline
xanthene
##guanidine
trienoate
##ropent
dihydrothieno
trichlo
hexahydroxy
yloxymethyl
phenylcarbamoyl
hydroxyprop
methylpentan
bromopyridin
ylcyclohexyl
enylphenoxy
methoxypropan
oxal
phenanth
phenylpyrrol
##ickel
dihydrotetrazolo
##oxide
oxopyrrolidin
trimethylspiro
imidazolidin
trimethoxybenzoate
tetrahydrochromene
phenylquinoline
hydroxybut
tetrahydrothieno
thiazine
cyclopentyltetrazol
##thalazine
##hexanoate
formamido
49
pteridin
dihydrofuran
dicyclohexyl
dihydropyrazole
phenylpyridin
oxoazetidin
octadecyl
indeno
monoxide
hydroxypent
yloxybenzoyl
benzodiazepine
tetraenoate
27s
tribromo
pentaox
methyltetrazol
##oxirane
yliminomethyl
ylanilino
benzenecarbox
carboximidamide
hydroxycyclohexyl
annulen
dimethylpurine
ylbut
hydroxybutan
dimethylsulfamoyl
##inden
acridine
benzotriazin
##anethione
hydroxypropoxy
diaminomethylidene
propylidene
methano
phenyltetrazol
ethoxypropyl
methylaminomethyl
hexadecyl
dioxopurin
##ylium
trifluoroprop
##phthalazin
carbamimidothioate
phenylethylamino
ylethylideneamino
fluorene
##nona
ylethenyl
dimethylpropan
nickel
benzyltetrazol
potassium
##yne
methylidenet
methylthieno
methylpyrrolidin
16e
tetramethylpiperidin
trimethyldodeca
hexadecanoate
##sel
benzenesulfonamido
diethylphenyl
phenanthridin
##ecarboxylate
phenylpyrimidin
##benzenesulfonate
##triazole
aminopropyl
oxybenzoate
ylidenemethyl
26s
ylcyclohex
##tetradeca
##ulene
cyclobutyl
methylpentyl
##hexanoic
enylamino
ylpiperidin
hydroxybutyl
diphenylacetamide
methylaniline
##chromeno
phenylsulfanylpyrrole
18e
oxopropanoic
13br
hyd
##inc
octahydroisoquinolin
hydride
methylsulfanylbutanoic
tetraenoyl
##hexa
tetraza
##fluoren
##us
hydroxybenzoyl
naphthyridin
##cyclohepta
isothiocyanato
henicos
dimethylpropyl
##animidothioic
17z
dioxol
tetrahydroquinolin
##indeno
butanedioate
##indolo
##propa
ylfuran
triazaspiro
diethylaminomethyl
methylphenol
oxypropanoic
chrysene
dimethylpent
dimethylquinolin
dihydropyrimido
phenylpiperidin
octadecanoate
methylpyrazole
12bs
cyclohexanecarbonyl
methoxyethoxy
ylethoxy
oxaspiro
platinum
##hromium
dioxonaphthalen
pentol
##iridine
mercury
ylpyrrolidin
##form
##acontan
methoxyoxan
##epine
dioxahexacyclo
##teridine
##acenaphthyl
##ethylamino
phenoxyacetamide
oxyphosphoryl
##porphyrin
ethylhexyl
pentafluorophenyl
51
##benzonitrile
undecyl
##cyanate
oxobutanamide
oxazolidine
##phosphonic
methanesulfonamido
nitroethenyl
azanidyl
##bo
ethoxymethyl
dimethylcyclohex
diyn
hydroxypropanoic
chlorothiophen
dienoxy
phenylbutanoyl
diiodo
sulfanylpropanamide
azetidine
dimethylethanamine
methylbenzoic
phenylquinolin
tricos
triazapentacyclo
diazonio
aminobutyl
dihydronaphthalen
##hexane
pyrazolidine
dihydropyrido
methyloct
tetrazacyclo
sulfooxymethyl
methoxybenzenesulfonamide
dimethylthiophen
ylpyridin
sulfanylpropan
##inn
trimethoxybenzamide
octahydronaphthalen
octadecanyl
zinc
phenylacetic
##iodide
dimethylfuran
indolizine
carbonyloxy
##benzofuro
methanobenzofuro
tetrahydroisoindol
carboxylatomethyl
propoxybenzoyl
oxalic
##pyrazine
oxopyrazolidin
diazepan
adamantane
oxocyclohexyl
cy
dihydroisochromen
ylbenzenesulfonamide
2a
methylpenta
cyclohexyltetrazol
oxopyridine
oxopyridazin
chlorobut
022
ethoxybenzamide
30s
pentadecan
ylmethanimine
methoxybenzene
hexahydronaphthalene
carboxymethylamino
ylquinoline
110
heptafluoro
chromium
phenylimidazo
benzhydrylpiperazin
##rate
tetrazolo
yne
sulfanylpropanoate
sulfinyl
oxidopyridin
chloroacetyl
oxopentyl
ylpyrrol
heptaoxo
ylpyridine
phenylethoxy
nonacosa
ylethylamino
sulfanylethylamino
13as
ylethylidene
phenylpyrazolidin
formate
##acetonitrile
oxobutoxy
pentazacyclo
diphenylacetate
trimethylsilane
021
hydroxyoct
phenylfuran
12b
dioxoanthracen
azaheptacyclo
heptadecan
tetrazole
oxopropanoate
dimethylmorpholine
phenanthrol
ylbenzene
dihydroxychromen
propanoyloxy
trit
##ropyrimidin
methylpyrazolo
##hexoxy
hydrobromide
##undeca
enylphenyl
carbamoyloxy
triamine
dioxido
methylpentanamide
ylpiperidine
chloroquinolin
sulfanylethanone
##acridine
##doc
pentanediamide
##ylic
oxofuran
tetraacetyloxy
sulfonylpiperidin
methoxyimino
methylnaphthalen
17e
pentoxy
50
st
dihydroimidazol
##azaniumyl
phenylpenta
phenylcarbamate
oxoacetate
dihydroacenaphthyl
dichlorobenzoate
azepane
heptadecane
picen
heptalen
trioxahexacyclo
hexadecanyl
benzothiadiazol
azulen
ethen
phenylmethoxybenzoyl
dibutylamino
##adium
methylcarbonimidoyl
dimethylpropanoate
methylidenetetracyclo
sel
trichloroethyl
hexaenyl
phosphonic
carbonimidoyl
##hydrazine
methylpropanoyloxy
tetraenyl
dipropylamino
sulfonatophenyl
115
methanesulfonic
##nonadec
disulfonate
pyrrolizine
##borol
8bs
hydroxyphenoxy
methylsulfanylbutanoate
dimethylbenzimidazol
azepin
brom
phenylfuro
diphenylethyl
docosan
sulfanylpyrrole
amide
11bs
octacosa
bromoethyl
pentanedioate
tridecan
trityl
bs
ethanesulfonic
##pentane
enoxybenzoyl
pentahydroxycyclohexyl
dihydroinden
azane
13bs
##carbonylphenyl
111
##carbamimidoyl
nonadecane
oxoacetyl
diphenylpyrazol
##phosphane
52
stannane
##ars
##hydrazon
##atetraconta
sulfonaphthalen
hexahydrocycloocta
pentazabicyclo
##quinolino
decaene
trimethoxybenzoyl
dimethyloxiran
trienoic
hydroxychromen
dihydroxypropoxy
oxon
id
hexone
2λ6
phenoxyanilino
ide
##bane
trimethylcyclohexyl
benzylsulfonyl
##osulfanyl
dimethylbenzene
carbamimid
##benzimidazolo
##oc
trimethylphenoxy
cyanoacetamide
cinn
methylbenzenesulfonic
##all
##methane
##tridecyl
ylpropanoyl
phenylthiourea
dioxopentan
triazacyclo
##tin
sulfanylacetic
indazole
tricarboxylic
propylindol
chloropropyl
hexafluoroprop
nitrothiophen
octadecane
dihydroxyoxane
phenolate
sulfonylpiperazine
##cium
hexatriaconta
##buta
heptazacyclo
benzothiazepin
hydroxybutanoic
dimethylheptan
phenylimidazol
ethoxycarbonylamino
ethoxycarbonylphenyl
54
dichlorop
methylmethanamine
azoniapentacyclo
##cyclopropan
##erm
oxocyclopent
cyclobutanecarboxamide
triiodo
trinitrophenol
dihydroindole
dioxobutan
dienamide
thiocyanate
58
hydroxypyrimidine
dioxopyrrolidine
chloropyr
diaminohexanoyl
methylhepta
##quinoxaline
56
##alcium
diphenylpropan
chlor
tridecyl
nitrophenolate
methylsulfanylmethyl
26r
tetrahydroxyhexan
phenoxyacetyl
thiazinane
3b
nitroprop
enylindol
##azepan
##trideca
acetylanilino
ylcarbamoylamino
enedioate
triethoxy
isocyanato
icosan
##acetohydrazide
azetidin
tricarboxylate
methylpyrido
trimethylpentan
phenacylsulfanyl
phenylpyrimidine
dioxaphosphin
27r
ethylcarbazol
##butoxy
heptacosa
##ag
octanoate
##nesium
##agnesium
1ar
methylsulfanylethyl
dimethylpropanamide
phosphinic
28r
55
dimethylcarbamoyl
##pentadec
hydroxyoctadec
dimethylbutan
sulfanylphenyl
##anethiol
benzoxadiazol
phenylcyclopropane
pentaoxatricyclo
dimethylcarbamate
##oxyethyl
phenylpiperidine
sulfosulfanyl
diazepin
oxopiperazin
##pentanoate
53
##octane
cd
methoxycarbonylamino
phenylsulfanylmethyl
diazaheptacyclo
hydroxytetradec
methylbutanoyloxy
ynoxyphenyl
026
sulfonylprop
methylpropylamino
pentadecane
##st
phenylpyridine
methylindole
##carbamodithioate
cyclopropylamino
##dithiolo
carbamimidamido
chlorane
tetradecyl
dihydroacenaphthylen
diacetyl
butylbenzoyl
sulfonylmethyl
ylbutan
dibenzo
dimethylsilane
oxybutyl
##butanedioic
phthalazine
##rio
trinitro
phenylindol
octahydroazuleno
trichlorophenoxy
dihydropyridazin
ylthieno
##azabicyclo
hexahydroazuleno
dodecaene
ynoxy
dimethoxyphenoxy
benzodioxepin
dihydroisoquinolin
oxophthalazin
ylmethanol
hexafluoropropan
1as
trifluoroacetamide
14as
cyclopenten
##phosphanyl
pentaoxa
28s
ethylpiperazine
diphenylphosphoryl
##octan
methylpropanoylamino
##indene
##onacyclo
iodobenzamide
calcium
##gane
oxooxan
phenylpyridazin
pyrazolidin
57
##etan
benzylindol
magnesium
oxoheptan
diphenylhexan
methyloxiran
tetrahydronaphthalene
undecaen
oxocyclopentyl
ylpent
ethylazanium
tetrahydropyrimido
##sulfanylmethyl
ylquinazolin
methylsulfanylpropyl
##heptane
diphenylacetyl
ylsulfanylacetamide
benzazepine
nitrobenzenesulfonamide
hent
nitroaniline
##pyrazin
tetradecane
dibenzoyl
methoxyacetyl
phenothiazine
hydroxypropanoate
ylsulfonylamino
methylidenespiro
diethylethanamine
ylsulfonylbenzamide
trimethylbicyclo
benzothiadi
99
cyanoethenyl
pteridine
oxopyridin
hydroxypropylamino
phenylpyrrolo
phenoxypropyl
phenylethanol
methylideneheptan
buta
oxyoxolan
dihydropurin
diazonioamino
benzoxepin
tetraenoic
dimethylpyridine
##hexanamide
propylphenyl
dimethylpyrimidine
bromonaphthalen
##λ4
methylimidazole
phenylbenzo
dimethylpyrazole
trifluoroethyl
sulfanylidenedithiolo
alum
ylpyrimidin
ylpiperazine
cyclooctyl
tetraoxatetracyclo
##se
disulf
pentachloro
dodecaen
##benzenecarbox
fg
ylimino
methylcyclohexan
dihydroxybenzoyl
##itanium
octahydrocyclo
ylpropylamino
dithiol
7br
##inane
methylidenehydrazinylidene
cyclodeca
oxocyclohexen
methylpyrrolidine
dioxoanthracene
dimethoxyphosphoryl
benzenecarboximidamide
methylpurine
dimethylnona
thiomorpholin
##selanyl
8br
diynyl
ethylpyrrolidin
##angane
aminobenzoyl
22e
##undecyl
oxacyclohexadeca
##anganese
##othiazin
methylpyran
butylbenzoate
methanethione
diphenylprop
31s
dichloroethenyl
diazene
ylcarbamothioyl
##ophenoxy
cyclopentylmethyl
yltetrazol
diethylsulfamoyl
decaen
phenylmethanimine
18z
methylbenzotriazol
br
fluoranyl
carboxyphenyl
##te
pyrazino
propylspiro
yloxyacetamide
1ah
##etane
dihydrocyclopenta
benzothiadiazole
dimethylbenzo
formylphenyl
hexazatetracyclo
pentone
ethylbenzimidazol
##cyclohexylidene
ylcyclo
18f
tetrabromo
##heptadec
##inate
ylpyrido
difluo
phenylpentan
dimethylcyclohexane
##anoyloxypropan
tributyl
methoxyspiro
tetraphenyl
##cyclopentan
diiodide
dimethylacetamide
112
cyclohexylcarbamoyl
dinitroaniline
heptahydroxy
methoxybenzoic
##triazolo
methyltetrazolo
19e
dinitrobenzoate
##diazonium
methylpropanoic
phenylpyrazolidine
hexylsulfanyl
yloxan
enylthieno
methylpropane
hexadecoxy
tetrahydroxyoxan
dihydrate
oxathi
cyclohexylphenyl
dibenzylamino
methylcarbamoylamino
hydroxypropane
dihydrobenzimidazol
dihydroindeno
##ermane
tetrahydroimidazo
oxidoquinoxalin
33s
##dodecyl
aminobenzoate
pentaenoate
dodecanoate
chlorop
phosphonooxymethyl
##animidothioate
carbodithioate
methoxyethylamino
tetracen
oxacyclotetradec
hydroxyiminomethyl
octoxy
59
ethylcarbamoyl
cinnam
ylpyrimidine
dimethyloxolan
##imidate
phenylcarbamoylamino
cyclohexylidene
manganese
dihydroquinolin
carbamothioate
λ4
phenylethanamine
dioxobenzo
phenylethylsulfanyl
oxaz
dibromide
oxohexyl
dihydropyrrol
dichloromethyl
pentadecyl
dihydrochromene
quinolizine
##rium
##pteridin
dihydroxypropan
025
pentafluoroprop
methylsulfamoyl
sulfanylcarbonimidoyl
dimethylbicyclo
oxonon
ylquinolin
dimethylcyclopropane
hexachloro
trimethylanilino
##ohydrazon
ylacetate
##aziridin
benzoylpiperazin
ethenylamino
tetraoxahexacyclo
heptazacyclopent
methylpyrrole
hexacosan
trifluoropropanoate
##oamide
ylazanium
ylethanol
dihydronaphthalene
##methanol
##un
phenylethynyl
oxobicyclo
methoxyoxolan
tetrahydrocarbazol
ylbutanamide
trimethylindol
ethanethioate
methoxynaphthalene
sulfanylpyrimidin
##cyclopropanecarbonyl
##henium
nitropyridin
titanium
oxooct
ethylimino
nonaenyl
methylnaphthalene
##ute
butanoyloxy
##asil
023
ethoxynaphthalen
11h
hexoxyphenyl
dimethoxychromen
yldiazenyl
027
cyclohexene
##carbamothioate
dimethylbenzoyl
dihydroquinoline
##pentanoyl
dihydropyridazine
##adamant
tetracosan
tetramethylhexadeca
dienylidene
##mium
iodoanilino
##etium
diphenylpropyl
##animidoyl
hentri
oxyhexan
##carbothioate
diethylacetamide
dibenzofuran
phenylcarbamimidothioic
oxathiolan
trifluoroethoxy
29s
oxopropanoyl
##pyrazino
phenylpyrrole
hexahydroisoindol
##quinolizine
methylhexadec
114
nonatriaconta
sulfooxyoxan
##atonaphthalen
##butanedioate
dimethoxyethyl
dichlorobenzamide
##alladium
nitrous
heptanoate
trioxatricyclo
##azatricyclo
trimethylpyrrol
##azetidine
##ung
##hodium
ylpentan
dimethoxypyrimidin
##ungst
##heptanoic
trisodium
benzylpiperazine
hexahydrophenanthrene
##tetracene
triazinane
methoxyprop
pentanoylamino
propyltetrazol
pentazatricyclo
##ungsten
tetrahydrodibenzofuran
sulfonyloxy
##stannane
dioxocyclohexa
cyanide
cyclohexyloxy
dithiolan
dihydroindene
dimethylimidazo
tetradecanoyloxypropyl
yloxyacetyl
##decyl
##pentanoic
##animidate
ylhex
##uterio
##ethene
hydroxypyrrolidine
methoxyacetamide
thiazepine
tridecane
dichloroplatinum
oxoxanthen
hexahydroquinoline
##benzenesulfonic
yloxybenzamide
##poxy
heptanoic
propanehydrazide
epoxy
acetaldehyde
26e
oxadiazolo
dithiolo
dibenzoyloxy
diphenoxy
disulfonamide
phenoxypropan
dibromophenyl
##potassium
ylcarbamate
pyren
thiopyran
dimethylazaniumyl
nitrosourea
62
methylcyclohexa
triazahexacyclo
phenylazetidin
dimethylpropane
##dispiro
cyclopropa
azacyclo
phenylsulfanylacetamide
hydroxyquinolin
phenylanilino
nonamethyl
dioxaborol
##azulen
oxooxolane
20e
phosphonatooxy
sulfonylpyrrolidine
##ropyrimidine
propylphenoxy
dodecanoyloxy
dichloroprop
dimethylquinoline
fluorobenzenesulfonamide
tetrahydropyrimidin
octaoxo
dimethylpiperidine
carbamoylphenyl
##picene
028
dimethylaminomethylidene
phenoxypropanamide
phenylmethoxymethyl
##ethylidene
dithiophen
benzoylphenyl
benzoxathiol
hexanoylamino
ylethylsulfanyl
60
diyne
##phthalazine
hexahydrobenzimidazolo
111c
dihydroxyphenoxy
##dodecane
64
heptacosan
31r
phenylmethanol
tritriaconta
##phenazin
tetrahydropyrano
##phosphon
##hn
##echn
methylsulfanylpyrimidin
##echnetium
nitroquinolin
butylanilino
cyclohexanecarbonylamino
phenanthroline
technetium
oxoquinolin
dimethylmethanamine
dihydroporphyrin
tetraoxapentacyclo
##docosa
oxypropoxy
thiolate
##yb
methylocta
##olyb
phenylhepta
phosphinothioyl
##olybd
##thiadiazole
azulene
acetyloxyethyl
29r
##cyano
ylimidazo
ethylindol
ylethyliminomethyl
tetradecanoate
##indazol
oxyhept
benzodithi
docosane
##aziridine
benzylcarbamoyl
decanoate
22z
ethyltetrazol
octadecoxy
disulfon
ethylthiophen
##asodium
trifluoroacetate
methylidenepyrazolidin
aziridine
carbonylhydrazinylidene
anilinophenyl
oxoquinolizine
tungsten
chloronaphthalen
cyclohexylacetamide
##phosphinic
pentazacyclononadec
##mercury
##butanoylamino
##olybden
##anu
##carbamimidothioate
7bs
methyltetradec
hexahydrophenanthren
phenylethylideneamino
##formamide
hydroxyphosphinothioyl
tetramethylhexadec
benzotriazole
dimethylhepta
thiochromeno
pentaza
dihydrothiophen
sulfanylmethylidene
dimethylcyclopenta
dimethylpyrazolo
##alene
methylazaniumyl
trimethyltrideca
methylsulfonyloxy
1λ5
propanediamide
thiolan
chlorophen
oxygen
oxopropoxy
ylazanide
propylbenzimidazol
##isochromene
phenylimidazolidine
iminobenzamide
##nit
phenylcyclopropyl
aminoethylamino
##selen
ylquinoxalin
dipyridin
oxazine
##thiolane
benzoxazepin
dimethyloxirane
hexacos
nitrate
nitrobenzoic
methylsulfonylphenyl
yltetracyclo
##triacont
##olybdenum
phenylcyclohex
methylidenecyclohexyl
methylbutylsulfanyl
cyclohexanecarboxylate
##oric
##chrys
##ethylsulfanyl
dipentyl
dotriaconta
26z
##triacontane
ynoic
pentylsulfanyl
35r
cyclopropanecarbonylamino
methylbenzimidazole
phenanthrolin
hydroxypentan
propylurea
phenylhydrazinylidene
dimethylbutyl
dihydroisoquinoline
bromobenzamide
trimethylquinolin
tetramethyltricyclo
methoxycyclohexyl
methylbutanoylamino
octadecanoyloxy
33r
oxyacetic
octatriaconta
##propanoylamino
undecaene
ylchromen
pyrene
ylpurine
oxybenzoyl
benzothiazepine
##octadecan
sulfanylpyridine
##octadecane
##docos
hydroxydec
nitroethyl
phenox
dimethylpropanoylamino
cinnamylidene
diethylanilino
phenoxybutanamide
30r
icosanoate
sti
ylpyrazolo
phenylbenzene
acetylpiperazin
tetraethyl
chromenylium
tetrahydroquinazolin
isocyano
disulfooxy
methylcyclopropyl
dioxoinden
##cyclohexene
024
octahydronaphthalene
ynoate
pentaenoyl
cyclopropanecarboxylate
hydroxypiperidin
##thioxanthen
methylhexan
tetraconta
##thalic
methylheptyl
iodanyl
hydroxypyridin
carbohydrazon
dioxaheptacyclo
butylidene
butylsulfonyl
difluorobenzamide
trimethylsilyloxyphenyl
##adamantane
##ithi
methylnon
chloroacetate
isoquinolino
dicarbaldehyde
##ithium
##cyclobutane
methylanthracene
##anylidene
##uthenium
sulfanylpurin
tetraoxatricyclo
heptazacyclopentacosane
4λ5
oxybenzamide
cyclohexanamine
hexahydroisoindole
oxiren
dihydropyridin
dodecoxy
benzothiazine
##tetracosa
heptadecyl
methylbenzohydrazide
diid
oxohex
##dibenzo
##tetrazole
diazepane
2as
ylpyrazol
ylthiophene
dimethylpentan
##penta
diazacyclo
034
trioxabicyclo
##tannyl
dimethylindole
##ethioamide
nonaoxo
031
methoxyacridin
sulfido
diazo
phenoxyethoxy
ylmethoxycarbonylamino
61
##rous
oxid
phenylbenzenesulfonamide
selen
hydroxyhexyl
chloroethoxy
iodomethyl
##co
yltricyclo
carbothioate
methylidenebicyclo
ethoxyethoxy
dienenitrile
iodofuran
sulfonatonaphthalen
pentamethylspiro
##idazino
dibutoxy
propylsulfonyl
21z
phosphoric
oxidophenyl
##icosane
dihexyl
methyldec
methoxymethoxy
dimethylcyclohexyl
dimethoxyphenol
34s
hydroxyethoxymethyl
##atooxymethyl
dioxobutanoic
##anedithi
cyclopropylacetamide
hydroxytetradecanoyl
thiaspiro
21e
iminocyclohexa
oxidoazanium
borane
hydroxytridecyl
phenylbutanoate
dimethyltetracyclo
heptatriaconta
##methanimidothioic
hexylamino
diazepine
chlorobenzoic
thiomorpholine
hydroxypentyl
##pyridazine
fluoroethyl
032
yloxyethyl
dinitrobenzamide
dimorpholin
sulfanylquinazolin
hentriaconta
##hosph
hydroxyicosa
##propanedioate
oxyspiro
dihydroisoindol
15a
tetramethyloctadeca
methylpropylidene
sulfosulfanylethylamino
rhodium
oxopyrrol
033
sulfoamino
hexazacyclo
##rin
dihydroquinoxalin
##amethyltetr
phenylmethylidene
phenylmethane
cyclohexylpiperazin
diphenylbut
tetraoxaheptacyclo
λ6
ylbutyl
ethylpiperidine
nitropyrazole
##ethen
dioctyl
##onaphthalene
dimethylbenzoate
methylsulfanylpyrimidine
oxopropanamide
##fluorene
arsonic
oxonaphthalen
oxothiolan
##epino
decoxy
diaminopyrimidin
dimethylbut
nitroimidazole
##dotriaconta
diazoniatricyclo
ethene
dimethylnon
dimethylpyrano
chloropurin
methoxybenzaldehyde
##epan
sulfonylpyrrolo
benzimidazolo
ethanesulfonamide
methylcarbamoyloxy
tetratriaconta
dimethoxybenzene
propylpiperidin
ylmethanethione
methylcyclopropane
ethanimine
bromoprop
sulfonylmorpholine
yloxycarbonyl
hexaenoate
dioxopyrazolidin
##orrin
phenazine
sulfanylpyrimidine
enylspiro
dithian
dithiole
##cyclobutyl
dihydrothio
sulfane
methylpropylsulfanyl
pentylamino
##picen
ylpropanoate
ethanesulfonate
carboxylatoethyl
##benzenecarboximidamide
##nonyl
phenylhydrazinyl
dimethylphenol
benzoxepine
chloropent
aluminum
##arium
oxoquinoxalin
ethylbutyl
dioxine
diphenylphosphanyl
octahydroxy
borabicyclo
hydroxycyclopentyl
ethyliminomethyl
trimethyloxan
cyclobutanecarbonyl
ylpyrrole
thiazino
enethioate
tetracosane
phenylcyclohexyl
ethylethanamine
4ah
tetramethylphenyl
32s
trimethylsilyloxymethyl
##ethanimidamide
ethylquinolin
ethylpyridin
ethyldisulfanyl
cyanoacetate
methanedi
phenoxyphosphoryl
chloropyrimidin
##phosphanium
37s
ylcyclohexan
dipotassium
methylacridin
##nitrous
ylimidazol
phenylimidazolidin
indolizin
yloxypropan
chloroethylsulfanyl
oxybut
nitrobenzo
dinitroanilino
##azeto
ylhydrazinylidene
chlorobenzene
pentacosan
azanid
carboxypropyl
35s
epoxyisoindole
##phi
ylindol
phenylbenzoyl
##osphi
iodobenzoyl
hexadecanoylamino
ynylindol
2ar
dimethylbutanamide
dimethylundeca
methylidenecyclohexane
trimethylpurine
octoxyphenyl
propylpyrazolo
oxadi
##methanimidamide
methylmorpholin
oxopyrazol
methoxyaniline
dihydropyrimidin
sulfonylimino
hexaoxa
heptylsulfanyl
ylmethanamine
cyanamide
63
phenylhexan
cyclobutane
dinitrobenzene
##aphosphol
oxoimidazolidin
heptone
difluoroanilino
phosphonooxypropyl
oxoheptanoic
molybdenum
palladium
ethylspiro
enethioamide
hydroxyethylidene
##hydride
tetracarbox
##ropyridine
##pteridine
##ethanimine
ylhept
ylbenzoate
propanal
hydroxyethylsulfanyl
##fluoropent
iodophenoxy
hydroxybutanoate
118
tetrasodium
tetrahydroazeto
dimethoxymethyl
enehydrazide
ylnaphthalene
phenylbuta
##arbonitrile
pentamethoxy
cyclohexylethyl
difluoromethylsulfanyl
##anonacyclo
ylbenzimidazol
ylphenol
##oxanonacyclo
trimethylpyrazol
##heptadeca
triazolidine
methoxypyrimidin
dienal
diethoxyphosphinothioyl
propoxybenzamide
hydroxide
65
methylcyclopent
ethoxybenzoate
benzothiole
##azepane
dithiolane
##lumbane
phenylhex
methoxycyclohexa
sulfanylfuran
propylcarbamoyl
diphenylcyclopropane
diaminopteridin
37r
dibutyltin
henicosan
propanedioic
dimethylsilyl
cyanophenoxy
phenylmethoxycarbonyl
oxocyclopenten
methylbicyclo
methylcyclopentyl
isocyan
##isoquinolino
tetracarbonitrile
bo
##imine
##anadium
##azulene
##pentoxy
nitric
ethenylphenyl
##idyne
oxoimidazo
##octadecanoate
##tetradecane
cyclopentanecarbonyl
phenyldiazenylphenyl
##aheptacyclo
methoxypyridin
pentacos
azoniahexacyclo
methylimidazolidine
oxazino
methoxyquinoline
phosphi
##fluoromethane
##odithioic
tricosan
boron
ylbicyclo
##azapentacyclo
diphenoxyphosphoryl
thiatricyclo
dihydroxybutanedioic
diazonium
carbamoyloxymethyl
##methanimine
arsane
phenylmethanesulfonamide
phosphite
methylcyclohexane
ethanethiol
##decan
dimethoxyisoquinolin
dichloroacetyl
enylideneamino
tetradecanoyloxy
dinitrophenoxy
34e
chlorophenothiazin
diphenylpyrazole
phenylsulfanylphenyl
annulene
methylpyrazine
phosphanium
methylpropoxycarbonylamino
##anthro
cyclopentanecarboxamide
##olate
##amate
##yrene
oxohexanoic
24e
phenylmethoxybenzamide
triazinan
styrene
ylcyclohexane
##ricyclo
hydroxyacetic
yloxycarbonylphenyl
docosanoate
phenanthro
dimethylaminodiazenyl
iodobenzoate
##azocine
tetrazahexacyclo
dinitrobenzoyl
##perox
isocyanatooxymethyl
methyldodec
oxoacetamide
ylmethylcarbamoyl
methanimidothioic
carboxymethoxy
porphyrin
methyliminomethyl
methylundec
thiazepin
enylbenzene
phosphonooxypropan
5bs
ylaniline
oxopiperidin
dihydrophenanthrene
##phenanthro
hexatetraconta
diethylcarbamodithioate
tetramethylporphyrin
decaoxo
benzotriazepine
trifluoromethane
123
octanoic
trifluoromethylsulfanyl
enoyloxymethyl
34r
hexazapentacyclo
##bi
##bium
hydroxyacetate
oxoacetic
125
decanoyloxy
formaldehyde
##undecacyclo
nitrobenzenesulfonate
phenylbenzotriazol
##rid
##azanidyl
hexahydroimidazo
hexahydroazulen
##tetracos
tetrazapentacyclo
oxoazepan
##phenox
nitroacridin
trimethyltetracyclo
propylbenzamide
##carbothioyl
trifluoropropyl
methylpyrimido
phenylbutanoic
aminophenoxy
tetrahydropyrazino
heptoxy
difluorobenzoyl
dimethylpiperazin
119
butoxybenzoyl
methoxypropylamino
6λ5
methylfuro
oxocyclohexane
dimethylquinazolin
ethylcarbamoylamino
enylpiperazine
octazacyclo
propylacetamide
methanidyl
214
phenanthridine
octadecanamide
benzoxadiazole
germane
##conium
diimine
dimethylhex
methylbutane
##irconium
dimethylcarbamoyloxy
##xide
cyclohexylideneamino
dibromophenoxy
phenacyloxy
##erim
phenylbenzoate
thioxanthen
benzylbenzimidazol
thiabicyclo
cyclohexylcarbamoylamino
##phenanthridin
phenylmethanamine
oxoimidazol
dihydroisochromene
hexanedioic
sulfonylbenzamide
carbamoylhydrazinylidene
sulfonatooxy
decahydrobenzo
azoniaspiro
oxazaphosphin
##alum
##oxamide
hydroxyhex
dihydroanthracen
propoxycarbonyl
40s
##henicos
##phenothiazin
dioxocyclohexane
methylbuta
tetramethyltetracyclo
oxidourea
decahydrophenanthren
hexaenoyl
36r
octamethyldotriaconta
isochromeno
phosphonomethyl
##germane
benzylphenyl
##atriacontan
dioxabor
##triacontan
methylsulfonylpiperazin
stibane
dimethylurea
bromopropyl
diethylcarbamoyl
sulfonylethyl
tridecaene
##ver
phenylpropanoylamino
hydrazin
phosphanylidene
129
dimethoxybenzoic
##cyclohexen
hydrazinecarbonyl
##ban
hydroxyhexadec
##hlorate
tetrahydronaphtho
20z
ethylpyrimidine
hexanediamide
butylsulfinyl
phenylpropane
ethylsulfanylethyl
nitropyridine
66
lithium
##ad
aminotetrazol
trimethyltricyclo
silic
36s
barium
ylbenzo
phenylaniline
trimethylbenzenesulfonamide
##carbazole
##heptanoate
30z
diide
dimethylethane
methylideneheptanoic
tetrahydropyridin
dimethoxynaphthalen
pentadecaene
benzenecarboximidothioic
tin
methylcarbamothioyl
##amid
methoxybenzohydrazide
pentacosane
tetrathia
sulfonylurea
cyclopentyloxy
cyclopentylacetamide
dichloropyridin
tetrazin
octanamide
diphenylbutan
##tric
octadecanoyloxypropyl
methylsulfonylamino
32r
methoxyiminoacetyl
##purino
tricyano
pentaenoic
dimethylpyrrole
dithiane
##thiochromeno
methylcyclohexylidene
##arsanyl
tetrafluoroprop
oxopropanenitrile
phosphonato
oxirene
benzhydrylidene
methylethanamine
tripropyl
dimethyltricyclo
hexacyclo
cyclooctane
diphenylthieno
oxobutanenitrile
oxychromenylium
##cyclopentylidene
thiazinan
ylthiourea
methyloxirane
ethylhexoxy
dioxaphosph
hexadecanamide
formylphenoxy
chloropropanoate
boranu
1λ4
##ethanimidoyl
sulfanylimidazol
##pentanamide
sulfonylacetamide
octadecanoylamino
hexamethylspiro
##formate
carbohydrazonothioic
oxycyclohexyl
methylidenepent
nitr
dioxopiperazin
trimethylpiperidin
ethoxychromen
benzoyloxymethyl
pentaacetyloxy
oxofluoren
##thiane
tetrahydroquinazoline
sulfoanilino
heptanylidene
##uth
##enaphthyl
hydroxyundecyl
acenaphthyl
##decane
cyclohept
ethoxyquinolin
butanenitrile
dithione
phenylsulfanylpropanamide
##phenolate
perc
##muth
phenylcyclohexane
phenylpentyl
##pentaconta
dioxopyrimidine
propylideneamino
phenylethylidene
trienamide
##methanedithi
##methanesulfonamide
oxyhexadec
##phthalic
##achlo
nitroquinoline
trihydroxyphenoxy
enylprop
##sulfonohydrazide
octahydrophenanthren
methylhexa
dioxaborolan
tetrazine
decahydrophenanthrene
spirobi
hexaox
formyloxy
3br
##ohi
##stannyl
##mban
ethylthiophene
methylpentadec
dihydrochromeno
##ohimban
70
benzoselen
methanimidamide
tetramethylpentacyclo
##isochromeno
oxopiperidine
methoxybenzo
##benzothi
octanyl
trimethylsilylmethyl
##aphosphole
##boranyl
dioxaphosphinan
difluorophenoxy
ruthenium
##enethi
ylmethyliminomethyl
acetylsulfanyl
propylquinazolin
hydroiodide
##methanethioate
phenylsulfanylpyrrol
tetracarboxylate
ylethynyl
hydroxyacetamide
oxobenzimidazol
ethylpyrazol
sulfanylpropyl
phenylmethoxyethyl
38e
phenylcarbamothioyl
dihydroxybenzoate
bromopyridine
phenoxypropoxy
ylpropyliminomethyl
heptafluoroprop
aminopropylamino
chloropyridine
dide
ylbenzimidazole
dihydroimidazole
##thian
##epane
azoc
cyclopropylethyl
tetrachlo
benzothiadiazine
octahydrocyclopropa
yloxolan
ethylacetamide
trihydroxyhexoxy
029
trimethylthieno
##atriacontane
cyclohexylphenoxy
iminopropyl
pentakis
sulfamoylanilino
ylpropoxy
oxalate
##old
trihydrate
dimethylcyclopropyl
dioxobutanoate
ynylsulfanyl
dioxaphosphinin
##oline
phenyltriazol
dimethylpyrido
dimethylpyrrolidin
enylphenol
propylazanium
pentylphenyl
chloropropan
dihydroisochromeno
triazacyclotridec
methylbenzaldehyde
hexol
propyliminomethyl
##onan
oxysilane
bromoacetyl
ylmethylsulfamoyl
butylbenzamide
undecamethyltetr
alumane
disulfonaphthalen
ylisoindole
thiocyanato
hexahydrocyclohepta
methylthiourea
oxophthalazine
aminoanilino
##adecacyclo
butylcyclohexyl
##cyclopenten
tetrahydroxypentyl
methanolate
undecamethyltetratetraconta
oxocyclohepta
phenyliminomethyl
phenylcarbonimidoyl
methoxydibenzofuran
##pyridazino
trimethylidene
octanoyloxy
##atriacont
benzenesulfinyl
carboxyethenyl
octahydrophenanthrene
octahydronaphtho
diaminomethylideneazaniumyl
ylpropane
cyclododecyl
tetrahydrotetracene
benzylpyrrolidin
benzenecarbothioate
phosphonooxyoxan
din
perim
phenyloxan
fluoromethyl
diethylcarbamate
methylidenetricyclo
##ochlo
carbamimidamidopentanoyl
##inium
phenylbicyclo
sulfanylbenzoic
cyanoanilino
methylsulfanylbenzamide
ethylsulfanylmethyl
phenazin
undecanyl
ethoxycarbonylanilino
azanidylethyl
ethenoxy
oxepin
sulfanylbutanoate
hexanedioate
diphenylpent
anilinomethyl
##oxathi
3bs
th
enylpyrrolo
methylbutylamino
ylpropanoic
##dodecan
ylpyrazole
benzenecarb
##fluorophenoxy
dithiazol
##ecarbohydrazide
##ropiper
##oxetan
hydroxybutanamide
dimethylbutanoate
ethylthieno
oxybutan
##ite
trifluoromethylsulfonyl
cyclopentylideneamino
yloxysilane
67
yltriazole
oxothiophene
dimethylimidazolidine
dimethylmethanimidamide
##cyclobut
acetamidomethyl
iodopyridin
silver
##tricos
dipropan
phenylthiophen
##sulfanium
##hexanal
diiodophenyl
##yanide
12br
cyclobuta
nitroisoindole
triazabicyclo
dimethylpentyl
ethylpyrazole
cyanomethylsulfanyl
##adol
##aborol
ylnaphthalen
diheptyl
oxoocta
##acyclohexa
iminopyridine
octahydroindol
cyclopropylethynyl
##amidic
##adolinium
##amic
##rophosph
phenylhept
tetrahydroacridin
diphenylethenyl
phenylmethoxypropan
##silinane
ynamide
fluoroprop
sulfooxyphenyl
dioxidoazanium
##chrysen
methylpyrrolo
methylformamide
##oxypropyl
fluorobenzene
hexanyl
pentaoxaheptacyclo
ylquinazoline
trifluoroacetic
methylsulfanylpyridine
diphenylpropanamide
##tritriacontane
ylethanamine
##rite
trithia
ethylcarbamate
oxyphenoxy
##phenazine
tetrahydroindole
octazabicyclo
218
23z
phenylpropylidene
adamantylmethyl
dioxaphosphinane
silicate
corrin
gold
tetrahydroindazol
propylquinoline
sulfonylaniline
methylheptane
fluoranthen
octylsulfanyl
benzothiadiazin
113
121
dichlorocyclopropyl
hexahydroinden
phenoxychromen
phenylsulfanylacetyl
azaniumylidene
decahydroxy
tritylsulfanyl
##yohimban
ethylcyclohexyl
acetylsulfamoyl
trifluorophenyl
acetamidobenzoate
tetraenoxy
ylthiophen
oxohexanoate
phenylbenzimidazol
##hexaconta
trihydroxycyclohexyl
hexahydrothieno
methylpentane
selanyl
##copper
##peroxoate
gadolinium
##ethylsulfonyl
methylcarbamimidoyl
phenylselanyl
tetrahydroindeno
trimethylcyclopentyl
cyclohexylsulfanyl
7ah
39s
##octadecanoic
oxocyclohexylidene
methylhexyl
oxodec
phenylcyclopentyl
trimethylbenzene
diethylaniline
cyclohexylpiperazine
diphenylethanol
ethenylcyclopropane
triphenylphosphanium
hydroxypentadec
##ethanethiol
ethanimidamide
dimethylfuro
ethoxyphenol
octacos
dodecahydropicene
pentadecanoyloxypropyl
##diazene
hexadecanoyloxypropyl
perchlorate
zirconium
octone
diphenylethanone
butoxyethoxy
aminobutylamino
trihydro
dimethylpiperazine
oxypyrrolidine
heptazatricyclo
sulfonylbenzoate
carbamimidoylphenyl
ylpropanoylamino
##admium
chlorobenzenesulfonamide
dihydrophenanthren
211
methylheptadec
nonafluoro
methoxyoxane
diethylpentane
sulfonylbenzene
trimethoxychromen
diaminomethylidenehydrazinylidene
3λ5
ylethane
oxohexanoyl
bromoethenyl
trimethylcyclopentane
6ah
tridecaen
decahydrocyclo
undecazacyclo
trimethylsilylamino
##nonan
phenylbutane
methoxyxanthen
dimethylcarbamodithioate
dihydronaphtho
enylpyrimidine
trichloride
phenoxyethylsulfanyl
##aphosphinin
pentazacycloicosane
ter
methylpurin
dioxacyclo
##dioic
fluorosulfonyl
tetrahydrophenanthren
sulfonylbenzenesulfonamide
hexahydropyrimido
iminoacetamide
iminobenzimidazol
23e
diacetyloxyphenyl
vanadium
methylphosphonic
triphosph
oxoimidazolidine
phenylindole
dimethylcarbamothioyl
pentalen
phenoxyacetate
oxymethylphosphonic
phenylmethoxychromen
propoxycarbonylphenyl
azaniumylethyl
pentachlorophenyl
octahydrocyclodeca
##chrysene
carbanide
ethanedi
dimethyldeca
chloroethenyl
##cyclodeca
oxybenzoic
dihydropyrrole
heptafluorobutanoate
oxacyclotetradecane
phenoxazin
trifluoromethanesulfonate
##inan
methylcyclopropanecarbonyl
oxepino
oxofluorene
phenyltriazole
sulfanylprop
dichlorocarbazol
acetamidoethyl
undecone
##fluoride
pentaoxaoctacyclo
phenoxazine
fluoroaniline
bromoacetate
##isothio
diethylazaniumyl
##quinolizin
isothiocyanatophenyl
125i
oxyheptan
dioxocyclohexyl
phenalen
hexahydroisochromeno
decanyl
carbamoylpyridin
tetraenamide
diethoxyethyl
benzamidophenyl
dipropylazanium
hexazabicyclo
##ropiperidin
hydroxyoctadeca
aminopyridin
sulfanylbenzene
sulfanylphosphoryl
nonanoate
##deuterio
ethylsulfonylamino
tetrazacyclohexadec
dinaphthalen
##ephthalic
##oxec
oxybutanoate
methylidenebutanoate
tetrahydroacridine
acetylindol
enylthiourea
030
benzoxazepine
cyclopentylidene
pentaide
azepine
oxoxanthene
##xylamine
##ylideneamino
diiso
aminohexyl
##hydroxylamine
dimethylcyclohepta
##azinane
nitropyrimidine
213
phenylpropoxy
##octacos
butoxycarbonyl
diethoxyphosphorylmethyl
sulfonatoanilino
##cycloprop
dimethoxyphosphinothioyl
acetamidophenoxy
chlorophenol
##carbamoyloxy
30e
##indazole
benzhydryloxy
##ercu
##phosphonoyl
methoxyfuro
dihydrobenzimidazolo
dihydroxybutan
octanoylamino
heptanamide
carbamodithioate
diphenylpyridin
adamantan
methylaziridin
aminoacetate
cyclohexylbenzamide
phenoxyethanone
##iminocyclohexa
tridecafluoro
42r
boranyl
ylcarbamimidothioic
dipropoxy
oxohepta
aminopentyl
chlorobenzo
##cyclobutan
oxyacetonitrile
dihydroxybenzamide
nitrochromen
diethylethane
phenylethylcarbamoyl
diphenylpiperidin
cyclopentylprop
dodecahydroxy
phenylsulfanylethyl
39r
chloromethylidene
40r
69
cadmium
triacontane
phenyloxolane
phenylacetohydrazide
dihydrothiophene
15as
##pentadeca
hexanoyloxy
acetylphenoxy
propanoylphenyl
iodoethyl
pentamethylcyclopentane
methyloctan
oxazaphosphinan
ethylbenzene
dihydroxybenzoic
sulfonylguanidine
phenoxyphenoxy
hydroxypropanamide
dodecahydroyohimban
diazaoctacyclo
tetrafluorophenyl
##olin
phenylethane
phenylcyclopentane
phenylcyclopropanecarbonyl
phenyltetrazole
dimethylpyrrolo
benzothiepine
octahydroindolo
trichloroacetate
##tetradecanoyl
aminopropanoylamino
undecaenoxy
tel
ylhydrazine
butylsulfamoyl
diolate
oxopropylsulfanyl
oxazinane
trichloroprop
##methanolate
dihydride
hydroxydodec
oxocyclo
oxohexadec
chlorobutyl
fluorobenzo
nitropyrimidin
dimethoxybenzenesulfonamide
sulfanium
##othiazine
indacene
benzenesulfonylmethyl
ylsulfonylbenzoyl
butoxymethyl
triphenylphosphane
hexaza
dimethylpropanoyloxy
triphosphacyclohexa
oxotetracyclo
dimethylcarbamothioate
dihydroxynaphthalene
hexahydronaphtho
tetradecanoyloxypropan
##ercurio
ij
##ylene
methyltridec
tritetr
15b
enylacetamide
bismuth
cyclopentylpiperazin
pentylpyrrolo
##izino
ethylsulfanylphenyl
aminoethylsulfanyl
cycloheptylamino
methanoindolo
benzylsulfonylamino
ylcyclotetradeca
hydroxyoxane
carbodithioic
oxopyrazolo
trimethylpyridin
ylmethylcarbamoylamino
phenoxybenzamide
octahydropyrano
phosphoryloxy
dicarboxy
λ2
methylisoquinolin
trihydroxypentyl
butylacetamide
butylcarbamate
benzodioxepine
cyclopentylethyl
38r
didec
tride
tribenzyl
oxooctyl
phenylcarbamothioylamino
dimethylhexyl
dimethoxyquinazolin
diazanid
ethenylimino
benzylsulfanylmethyl
pentafluoroethyl
henicosane
methoxyethoxymethoxy
68
methylpyridazin
oxophenox
dimethylcyclohexa
dihydroxycyclohexyl
phenylsulfanylfuran
octafluoro
triethylazaniumyl
ylbutanoic
phenylphthalazin
dimethylbenzaldehyde
ethylcyclopentylidene
dihydroisoindole
dioxole
dihydroxybutyl
pentaconta
dimethoxycyclohexa
trimethyltridecyl
tetramethylbicyclo
diphenylimidazo
24z
##tetracen
ylmethylidenehydrazinylidene
##iodophenoxy
dihydroxychromenylium
isocyanatophenyl
hydroxydecanoyl
trideuterio
yldisulfanyl
diphosph
hydroxybenzaldehyde
phenylazanium
oxyoctadec
cyclooct
nitromethyl
enylbenzimidazol
carbonylcarbamothioylamino
benzodioxolo
##sulfonylamino
diphenylimidazolidin
##octacosa
hexamethyltetracosa
butoxypropyl
isoindolo
72
##tium
pentachlo
##cyclohexanamine
benzylidenehydrazinyl
hexadecahydropicen
undecahydroxy
pentafluoropropanoate
ylbenzoyl
ylcyclohexa
methylpyrazin
oxyethoxy
oxycyclohexane
nitropiperidin
dimethoxyoxan
trimethylcyclohexane
cyanoamino
phosphinate
dodecanoylamino
cyclopentylpiperazine
pentadecafluoro
arso
oxidanium
ce
##plumbane
##idanium
ylacetonitrile
methylmethanesulfonamide
triyn
chloroacetamide
oxybenzene
nitros
enylazanium
##anthrene
diphenylpyrrol
heptadecafluoro
benzamidoacetate
##rontium
trityloxymethyl
##pentadecane
nitramide
λ3
ylbutanoyl
methoxyindol
##benzenethi
sulfanylbenzoate
sulfanylbenzimidazol
trihydroxyhexan
ethoxyimino
enylbenzamide
sulfamate
benzylacetamide
cyclohexylmethylamino
methyldisulfanyl
hydroxyhept
oxoundec
chlorobutanoate
ethylquinazolin
##azinan
dichloroethyl
enylpurine
heptazabicyclo
methylsulfanylprop
##ead
diaminopurin
trichloroacetyl
butoxycarbonylphenyl
methoxycarbonylanilino
nonadecanoate
methylcyclohexanecarboxamide
azanidacyclo
undecazacyclotritriacontane
aminopropoxy
dimethylhydrazinylidene
sulfanylquinoline
cyclohexylurea
dodecanamide
phenoxypropanoyl
diphenylindol
methoxycarbonylphenoxy
pentahydroxyhexyl
octylamino
41r
carboxypropanoylamino
ylbenzoic
methylcarbamimidothioic
##ono
dimethylpyran
ethylbutanoate
##anylidyne
methylideneoxolan
dihydroxyoctadec
sulfite
benzylimino
heptoxyphenyl
cyclopentene
diphenylimidazolidine
difluorobenzoate
##silolane
hexakis
##elen
71
methylphosphoryl
hydroxyspiro
hydroxypyridine
dimethylimidazole
ethylbenzamide
ethylhexanoate
cycloocta
##anoylsulfanyl
dichloroacetate
##cyclopentene
butoxyethyl
adamantylamino
##thiomorpholin
44s
diform
methylcyclopentane
oxoheptyl
trimethylpentacyclo
trimethylpyrimidin
carbonylanilino
diphenylpentan
oxoheptanoate
##cyclopropanecarboxamide
##sti
dibutoxyphosphoryl
ylbutane
carboximidate
methylsulfanylpurin
benzenediazonium
phenylmethoxyphenoxy
methylheptanoic
fluoropyrimidin
pentylazanium
methoxymethylidene
tetrahydropteridin
triazaoctacyclo
pentaoxahexacyclo
74
##inamide
methoxypyridine
aminopyrrolo
cyanomethoxy
sulfonylbenzoic
sulfonylpyrrole
benzhydrylsulfanyl
azanidylcyclohexyl
didecyl
methylnona
trisulf
ethylbenzo
ethylbutanamide
oxyxanthen
sulfanylbutanoic
nitrothiophene
pentatriaconta
enylpyrimidin
hexahydropyrido
dodecahydropicen
pentabromo
tetrachloride
chloroethylamino
##thiadiazol
benzenecarboximidate
perimidine
##tc
hydroxyhexa
oxododec
phenyloxiran
oxypropane
138
sulfanylpyridin
dioxocyclohexylidene
trimethylcyclohexa
##acetamido
##acetaldehyde
butylphenol
ylidenehydrazinyl
nonacos
diphenylpyrazolo
carbonochlo
##anethioamide
99tc
##cobalt
methanediamine
dicyclopropyl
diphosphon
oxopropane
phenylsulfamoyl
methoxypyran
dihydroxyicosa
nitrospiro
propylpyrrolidine
decanoylamino
dinitrophenol
42s
hexadecahydropicene
ethoxypropylamino
epoxyisoindol
dido
methylsilane
methyltetracyclo
methyloxolane
tritriacontan
phenylacetonitrile
12h
dioxopyrrolo
enylpyrrolidine
diphenylcarbamate
diphenylmethanol
carboxyacetyl
25e
benzhydrylideneamino
diformyl
carbonochlorid
##inine
diacetamido
methyltriazole
dimethylimidazol
dimethyldodeca
benzylpyridin
benzoylbenzoate
##anedihydrazide
yloxycarbonylamino
dibromomethyl
dicyanoethenyl
##borate
dimethyloctan
cinnamylideneamino
##cane
methylnaphtho
oxazocine
phenylhexyl
##dibenzothi
nitrobenzaldehyde
propylimino
methanethiol
nonoxy
phenylpropanenitrile
propoxyethyl
tribromophenyl
tetrazacyclotetradec
dihydroacenaphthylene
##pentadecan
heptazacyclopentacos
plumbane
methyloctyl
oxetan
##oxepan
hydroxybenzene
phenylquinoxalin
aminocyclohexyl
chloroaniline
ethylchromen
nitrobenzonitrile
propylpyridin
decanamide
carboxypentyl
cyclopropylacetyl
methylsulfonyloxyethyl
heptaenyl
ylsulfonylbenzoate
carboxymethylsulfanyl
46r
ylcyclohexene
oxadiazine
lead
ylcyclopropane
dimethyltetradec
##pentanedioate
##hexanoylamino
enylcarbamimidothioic
octanoyl
tetraid
benzodioxaphosphinin
diphenylsilane
##iran
hexaenoic
methylsulfonylmethyl
oxacyclooctadeca
pero
##cinn
##methylideneamino
oxomorpholin
oxotetradec
methoxyethanone
dimethyloxane
carboxypropan
25z
28e
pentaenyl
diethoxymethyl
##undecane
strontium
dihydrothiopyrano
##ohydride
methylxanthen
dihydropurine
dioxopiperidin
dimethoxyquinolin
sulfanide
phosphabicyclo
carboxyprop
phosphonamidic
formylindol
monohydride
azocan
ylhydrazinyl
methylcarbazol
methylthiadiazole
##azahexacyclo
phenylquinazoline
chlorobenzenesulfonate
116
oxypentyl
nitronaphthalen
dioxohexan
trimethylquinazolin
tetrathi
##octanoic
cyclopentylcarbamoylamino
silabicyclo
methoxymethylamino
##hexadecane
trioxaheptacyclo
methylcarbamoyloxymethyl
phenylcarbamoyloxy
ylacetic
hydroxybenzohydrazide
oxotricyclo
chloroimidazo
dihydroanthracene
bromoethoxy
tetrahydropyridine
pentalene
trimethylbenzoyl
trimethylhept
acetamidoanilino
037
diphenylfuran
##octanoate
nitrosobut
phenylpentanoic
##oxadiazol
diisocyanato
ne
##yp
##methylamino
benzothiol
tetrahydrate
dibromopyridin
##butanoyloxy
methylindolo
##carboximidamide
##thiochromen
azidophenyl
dioxidoamino
##allane
diphenylphosphanylethyl
octazacyclooctacos
3λ6
hydroxyquinoline
tritert
thiane
carboximidoyl
ethylthiourea
oxyoctadeca
##sulfinate
heptanoyl
trienoxy
octahydropyrrolo
phenylmethoxyoxan
pentafluorophenoxy
thiochromen
ethanolate
nonahydroxy
oxacyclododec
boratricyclo
oxonaphthalene
triethoxybenzamide
ylcyclodeca
pentazacyclononadecane
1b
##lium
##rhodium
triamino
phenylhexa
dimethylprop
ethylsulfamoyl
##phenothiazine
##pentacosa
##pentanedioic
dihydroxyanthracene
nitronaphthalene
tetrahydrotetrazolo
trimethylchromen
trimethylphosphane
ethoxyphosphoryl
heptanediamide
cyclopentanamine
hexahydroindene
decahydronaphtho
hexaenylidene
fluoropyrimidine
nonadecaene
icosyl
carbamimidoylsulfanyl
##borane
arsono
tricosane
boranuid
azanidylethylazanide
78
75
yleth
hydroxytetracos
oxopyridazine
methoxyacetate
dimethylpentacyclo
dimethylbutanoic
dimethylcyclohexan
##dioate
cyclonona
cyclohexylethylidene
yloxychromen
oxidoquinolin
formic
thiopyrano
enoxymethyl
phenylpropylsulfanyl
trimethylsilyloxyethyl
pentahydroxyhexan
##tridecan
tetrafluoroethyl
##hydrazonothioic
##ymium
##od
##oxidanium
trisulfonic
oxoethanimidoyl
oxyhexane
methylidenecyclohexylidene
tetrahydroindol
benzylphenoxy
heptacos
methylsulfanyloxan
hexahydroindol
acetyloxybenzoate
tetradecanyl
methylpentoxy
ethoxycarbonyloxy
sulfopropyl
##ethanesulfonic
nitropropyl
##ethanethiolate
arsoro
##odymium
##corrin
oxooctadeca
phenylsilane
phenyloxirane
dimethylpyrrolidine
methylidenecyclohexan
dihydroxyhex
cyanoacetyl
cyclohexylprop
cyclohexylcarbamate
hexahydroindeno
##hexadecyl
triethylsilyl
##fluoranthen
thiadiazinane
ylpentanethioate
##oxecin
methylcyclo
methyldiazenyl
##pentalene
##methoxymethyl
cycloheptan
nitropent
nitromethylidene
propylcyclohexyl
43s
diazonia
triethylazanium
##borinane
boronic
trihydrochloride
oxophenoxazine
##can
##hentriacont
ylpentyl
hydroxycyclohexa
phenylphenol
methylideneoxan
##hexatriaconta
sulfonylhydrazinylidene
8ah
hexahydroindolo
pentaoxanonacyclo
##icosanoate
cyclopentanecarboxylate
hydroperoxyicosa
yloxypropylamino
methanediolate
##brom
dipyrrolidin
hydroxyheptyl
ethylsulfinyl
hexac
bromoquinazolin
dimethoxynaphthalene
butylimino
iminothiourea
carboxybutyl
##phosphinate
cyclopentylpropanoate
propoxymethyl
phenylsulfanylpyrido
pentadecanoate
azaoctacyclo
dodecylamino
decylsulfanyl
##boranu
azanidacyclopenta
stannyl
thian
enylquinoline
benzylpiperidine
propylcarbamoylamino
cyanopropyl
iminochromene
tetradecoxy
octadecanoic
pentyloxiran
heptadecanoate
benzhydryloxyethyl
heptylidene
dodecylsulfanyl
46s
diynoic
ylpenta
pentazaoctacyclo
terephthalic
76
ylimidazolidin
ylacetohydrazide
methylnitrous
hydroxynon
oxododeca
oxoazetidine
phenylpyrido
dimethylbutane
11c
oxyanthracene
tetrahydroindolo
dimethoxyxanthen
ethoxymethylidene
dichlorobenzene
dichlorocopper
tetrayne
nonone
phenoxypyrido
phenylmethoxyanilino
phenylmethoxypyrrolidin
pentamethylicosa
enoxybenzene
tetradecaene
heptadecanoyloxy
##cyanamide
dibenzylidene
azidomethyl
dimethylsulfamoylamino
ylcyclohexen
##benzenecarboximidothioic
4λ6
##ilo
ylguanidine
methylselanyl
hydroxybenzo
hydroxyoctyl
dimethyltetrazolo
##asulf
propylquinolin
propylbenzene
propylpyridine
propylcarbamate
dodecanoyl
phenylmethoxybenzene
carbamothioylhydrazinylidene
sulfamoylbenzamide
ynylamino
38s
tetraoxide
enediamide
carbamimidamidopropyl
dipentylamino
dioxaborinane
heptafluoropropyl
hydroxyoxolane
oxopyrimido
aminopyrrolidin
ethylhex
oxyethanamine
##eryl
dioxonan
propylthieno
dodecanyl
27e
##irine
fluoropyridin
pentadecahydroxy
hexadecanoyloxypropan
ylcarbamoyloxymethyl
##platinum
ylbutanoate
hydroxyheptadec
methoxypyrazin
thiolane
bromopyrazol
ylmethylcarbamothioyl
##sulfamic
dichlorothiophen
carbamic
undecanoic
ylsulfonylpiperazin
cyclohexanecarbohydrazide
hexaenyloxy
##adamantan
irid
##ethanethioate
##ethanimidothioate
methylnonyl
hydroxypyrrolidin
oxocyclopentane
phenylazetidine
aminoethanol
ethylurea
bromoquinolin
propylpurine
trifluorobutanamide
carbonylimino
hexahydropyrazolo
diphenylpyridine
benzoylhydrazinylidene
iodoprop
azepino
triacetyloxyoxan
41s
methylhexanoate
##aphosphinine
arsanyl
tetrazacyclotetradecane
##ocin
hentetr
##aborole
decahydrocyclododeca
iridium
##ruthenium
##bis
methylindeno
hydroxyethenyl
thietan
tetrahydrophenanthrene
dimethoxyspiro
trimethylbenzo
sulfanylidenequinolin
diazanium
cyanopropan
223
carbamoylanilino
undecanoate
##fluorophosph
dodecaoxo
butoxyanilino
##octadecyl
iodane
45r
oxypropanoylamino
ethoxymethylphosphonic
dichlorophosph
boranuide
didodecyl
yt
methyliden
dimethylpyrimido
ethylpent
##cyclopropa
122
cycloheptane
trimethylbenzoate
trimethylcyclopent
enylcarbamate
trifluoroethanone
benzodiaz
sulfonyloxyphenyl
yloxyethanone
dibromocarbazol
5ah
pentadecanoyloxy
sulfonatopropyl
hydroxybutanedioic
chloropyrazol
oxathiolane
butylsulfonylmethyl
##zinc
dianilino
methyltriazol
hydroxypiperidine
hydroxycyclohexane
aminopropan
dihydrobromide
nitrobenzimidazol
dioxohept
acetylcarbamothioylamino
enylquinazolin
benzylpyrrol
propylpentanoate
cyclohexylpropanamide
phenoxybenzene
cyclopentylsulfanyl
dienedioic
pentylfuran
methylbenzenesulfonyl
##icosan
dicyanomethylidene
trinitrophenyl
dioxaborolane
##ethenoxy
dihydrothiochromen
acenaphthylen
73
ylsulfinyl
ylimidazolidine
##ethoxymethyl
phenylisoindol
phenyloxane
ethanimidothioic
methoxybenzenesulfonate
ethylbutanoylamino
tetraphosph
oxyocta
oxynon
dihydroquinoxaline
dioxoindol
tetrahydropyrimidine
butylbenzene
nonazacyclo
##azepino
dibromopropyl
azonia
hexamethylpentacosa
pentadecanoyloxypropan
##thiomorpholine
octaenyl
tetrahydroporphyrin
trinitrobenzene
undecaenyl
octadecoxypropyl
##ophenyl
yltriazol
ylhexan
##azaheptacyclo
chloroquinoline
sulfanylethanamine
##phenalen
fluorobenzohydrazide
diphenylbenzo
diphenylpyrimidine
diphenylpropane
diphenylpropanoate
octahydroindole
oxadiazolidin
azoniaheptacyclo
ylsulfonylbenzenesulfonamide
dithio
dithiaspiro
pentanenitrile
phenylpropylideneamino
cinnoline
tetrahydroxyhexanal
stib
benzoselenazol
methyltricyclo
ace
triacont
oxoicosa
phenylchromene
phenylpyran
methoxycyclohexane
aminohexanoyl
dimethylbenzoic
##butanediamide
acetylimino
enylbicyclo
dotetr
sulfonylpyrrolidin
diphenylspiro
27z
nitrosoprop
cyclopropylmethylamino
tetraoxaoctacyclo
oxacyclotetradecan
oxazaphosphol
##methanedithiol
##eryllium
aminonaphthalen
dimethylnaphthalen
dimethylcarbamoylamino
dimethyltin
tetramine
oxyoctadecan
sulfanylpyrrolidine
##aleno
azanylidyne
##sulfinamide
enylcyclohexa
benzylcarbamothioyl
tetrabutyl
decahydroquinolizin
ylsulfanylacetyl
dichlorophenol
dihydroindolo
butanehydrazide
undecaoxo
arsoroso
ylcyclopentyl
hydroxypyran
oxohexa
methoxyamino
dimethylaziridin
##cycloundeca
sulfanylbenzamide
cyclohexylsulfamoyl
decamethyltetr
iminourea
cyclopentylbenzamide
ylsulfanylethanone
oxacyclotetradeca
dimethyloctane
tetrazacyclododec
dichloropropan
77
##vanadium
methylquinoxalin
methylguanidine
methylacridine
hydroxycyclohex
oxooctan
methoxypentan
dimethyldec
oxyazanium
dihydrotetracene
dihydropurino
sulfanyltetrazol
fluorooxolan
nitroguanidine
octazapentacyclo
propylfuran
diphenylpyrimidin
carbamoylpiperidin
##trisulfanyl
decahydronaphthalen
ylsulfanylethyl
tetrazanid
dichloropyr
benzhydrylpiperazine
##undecan
44r
trichloromethylsulfanyl
cyclobutanecarboxylate
trifluoropropan
henicosanoate
diynoate
selanylidene
diphenylpyrazolidine
##arsane
tell
ylpyridazin
sulfanylacetonitrile
dioxon
dioxobutanamide
trimethyltetradeca
phenoxathi
octazatricyclo
indolizino
propylpyrrolidin
trifluoroethylamino
nonazabicyclo
tetradecanoylamino
cyclopentyloxyphenyl
enoxybenzamide
oxazinan
hexoxybenzoate
82
mercurio
##germ
oxoni
trithi
phenylheptan
aminonaphthalene
dimethylsulfanium
ethylprop
oxynaphthalen
sulfanylbutan
nitrofluoren
tetrahydroxanthen
butylcarbamoylamino
##propanenitrile
##pyrrolizin
diethylbenzamide
benzenesulfonohydrazide
diaminophenyl
methylheptanoyl
hexahydrate
chloropropanoyl
48s
arsinic
tributylstannane
phosphonatooxyoxolan
disulfonatonaphthalen
##ethenol
##benzenethiol
##stibane
decamethyltetraconta
ylpurin
ylsilane
ylpyrazine
phenylnaphthalene
dimethylnaphthalene
dimethylpropoxy
ethylhexanamide
oxyprop
sulfanylaniline
##ophenol
##sulfamate
hexahydrooxecin
decanoyl
##sulfonylbenzene
diphenylimidazol
cyclopentylpropanamide
methylheptoxy
pentylidene
##silylpropyl
ylsulfonylanilino
oxireno
ylpropanenitrile
trimethylcyclohexene
tetracosanamide
tetrazaheptacyclo
dichloropalladium
80
methylazepan
oxetane
hydroxyethanone
oxopyrano
13h
ethoxybenzene
triazolidin
tetraiodo
phthalic
enoylcarbamothioylamino
trimethoxyphenoxy
acetyloxypropan
iodopyrimidine
pentylquinoline
icosanoyloxy
pentazapentacyclo
dicyclohexylamino
##allium
triazacyclooctadecane
benzothiadiazepin
##opper
methylthioxanthen
ethanimidate
ethylpyridine
tetratriacontan
sulfanylethoxy
bromopropanoate
tetrahydrochromen
trihydroxybenzoic
octanoyloxypropyl
methylsulfanylspiro
##iron
diethylboranyl
cyclohexylethynyl
dodecanoic
diphenylheptan
phenylsulfanylpyrimidine
heptylamino
##dodecanoate
dipropylacetamide
oxacyclotetracosa
tetracosanoate
phenylpentanoate
propylsulfanylphenyl
##oxaoctacyclo
iodanylphenyl
##dibenzothiophene
79
##azanonacyclo
aminopropanoate
dimethylheptyl
117
butylpyridin
diethylpropan
diethylpropane
diethylpiperidine
210
cyclohexylcyclohexanamine
hexahydroquinazoline
hexahydroazulene
cyclopentylpropanoyl
formylamino
nitrosocarbamate
##thiopyrano
##undecanoic
43r
cinnolin
nitropropan
dithiolate
oxathiine
##roplatinum
hydroxyurea
triiodophenoxy
phenylcyclohexan
ethanimidoyl
chlorospiro
124
oxybutanoyl
oxybutanoic
oxyhexoxy
##role
dihydroxyspiro
dihydroxynaphthalen
dihydroxycyclopentyl
enylchromene
trifluorobut
216
benzoylcarbamothioylamino
trioxatri
difluorobenzoic
cyclopropylmethanone
pentamethylphenyl
indacen
##nonane
##nonadeca
##oxireno
trimethylcyclohexan
##tridecane
hexahydrocyclobuta
nitrobenzenesulfonic
ylbutanediamide
ethenamine
chloropyrazine
##phosphanylethyl
aminohexylamino
84
methyltriazolo
oxothiomorpholin
ethylpyrimidin
##anylium
oxyethane
bromobenzenesulfonate
nitrophen
trihydroxyoxolan
trimethylundeca
butylazanium
butylbenzimidazol
cyanobenzoate
sulfonyloxymethyl
phenylethylsulfamoyl
diphenylpyrrolo
trimethoxybenzene
benzoylhydrazinyl
methylsulfonyloxymethyl
benzhydrylamino
##iobium
##undecanoate
hexahydrocyclopropa
carboxylatomethylamino
##heptadecan
diethoxyphosphinothioylsulfanyl
##lithium
##chromium
##anum
methyldeca
phenylindene
dioxobicyclo
dimethoxyfuro
##asilo
ethoxyprop
benzylimidazol
propylpyrido
propylthiophene
propyltriazole
methylsulfanylbutanamide
diethylbenzenesulfonamide
diethylcarbamothioyl
hexahydroacridine
##sulfonylmethyl
trimethoxyanilino
trienal
decahydroazuleno
29e
oxopropylidene
dicarbohydrazide
heptaox
carboxyethylamino
tetrafluoroborate
phenyldiazenylnaphthalene
triiodobenzoic
fluorosulfonylphenyl
##cinnoline
ylpyrrolo
ylpyrimido
dicyclopentyl
phenyloxolan
dimethylchromene
dimethylcyclopentyl
dimethylcarbamimidoyl
chlorocyclohexyl
sulfanylmethanethioate
dihydroxybutanedioate
cyclobut
trimethylquinoline
dichlorobenzimidazol
sulfanylidenespiro
methylsulfanylpropanoate
phosphatricyclo
oxidophenazin
benzenesulfonylimino
methoxyphenolate
tetrafluoroethoxy
##anthanum
octadecylamino
trinitrofluoren
phosphonatooxyoxan
hexacosanamide
##ethenamine
sulfonyliminocyclohexa
##henicosa
ylcyclohepta
ylhexanamide
dibenzothi
methyldi
methylsil
dimethylcyclobutyl
ethylcarbonimidoyl
##pyrene
sulfanylbenzenesulfonamide
dihydroxyoctadecan
bromobutanoate
tetrahydroindene
phenalene
enylsilane
heptacosane
trifluorobenzoate
iminoazanium
propanoylcarbamothioylamino
trichloroanilino
methylsulfonylbenzene
31e
tetrahydroxyoxane
pentadecaen
dichloropyridine
borate
hydroxybutanedioate
hexazacyclooctadec
ylpentane
phenylinden
phenylhexanamide
methoxyphosphoryl
ethylaniline
ethyloctan
methylideneoct
methylidenecyclopentyl
sulfanylacetohydrazide
bromohexanoate
##oselen
nitroindol
sulfinic
benzylcarbamoylamino
sulfanylidenepyridin
methanimidate
##butanenitrile
##irin
ynoyl
methylheptanoate
methoxyethylidene
dodecaoxa
trimethylsilylindol
sulfanylmethylsulfanyl
##atetracontan
diynylidene
chloropentanoate
fluorobenzotriazol
tritetraconta
##urop
hydroxyocta
hydroxyguanidine
dimethyloctyl
10c
chloronaphthalene
##hexanedioic
ethoxybenzenesulfonamide
##sulfinic
propylpyrazole
propylbenzimidazole
methylsulfanylpropanoic
benzoylimino
##octanamide
yloxyphosphoryl
octadecanoyloxypropan
dodecahydroindeno
ynoxymethyl
fluoropyridine
##ooxycyclohexyl
diethoxybenzamide
ylsulfonylpiperidine
phenylbutanenitrile
trienylidene
diethoxyphosphorylsulfanyl
decylamino
sulfinylmethyl
triiodophenyl
nonamethylhexatriaconta
phenacyloxychromen
cyclopropylethylideneamino
benzenecarbothioamide
carbonochloridate
##uropium
81
triacetyl
oxopyrimidine
methoxybut
aminooxy
dimethylhexan
dimethylhexane
bromopentanoate
dioxobutane
enylcyclopent
cyclohexylimino
phosphole
035
nonanamide
octahydroinden
phenylmethoxypropyl
phenylmethoxybutan
28z
butoxyphenoxy
benzotriazepin
tetramethoxyphenyl
carbamimidoylphenoxy
diazonioimino
methyltetradecanoyloxy
disulfooxyoxan
diazacyclododec
85
##im
##ethanimidate
diacetate
methylphthalazin
triazepine
phenylimidazole
phenylethene
aminoimidazo
dimethylhexa
thiiran
carboximidothioate
dihydroxide
tetrahydrotetracen
trimethyldeca
butylthiophen
heptacyclo
propylpentanamide
diphenylpyrrolidine
##anedial
iodoacetyl
##butylidene
29z
methylsulfonylpiperazine
trimethylsilylsilane
ynylidene
dinitroso
nitrosoethenyl
carboxylatophenyl
tetrachlorophenyl
diazoniabicyclo
formamidophenyl
pentaoxapentacyclo
sulfosulfanylethylidene
octahydrocyclotetradeca
cerium
86
##enon
ylhexyl
methylundecyl
hydroxydocos
oxothiolane
pyridazino
trihydroxychromen
enylimidazolidine
benzylpyrrolidine
cyanopyridin
tetrayn
methylsulfanylphenoxy
sulfonylazepane
228
nonacosane
benzoylpiperidin
tridecanoyloxypropyl
pentylcyclohexyl
oxopropanimidothioate
phenylsulfanylacetate
dichloropent
phenylpropylamino
benzotriazine
methylsulfinylmethyl
oxonona
##fluoranthene
dichlorophosphoryl
beryllium
lanthanum
rhenium
##aza
##ropurin
oxohexadeca
oxovanadium
phenylpyrano
dimethylquinoxalin
ethylhexanoyl
oxytetracyclo
15br
sulfanylpurine
dihydroxyfuran
fluorospiro
hexacosane
trihydroxycyclohexane
butylperoxy
propylpyrimidine
acetamidobenzenesulfonate
butanal
oxadiazolidine
trichloroethoxy
methoxyethylsulfanyl
sulfooxyethylsulfonyl
chloropropanoylamino
phenylpentanamide
hydroperoxyoctadeca
propylidenepyrazolidin
fluoranylphenyl
##boranuide
nonazacyclohentriacont
aceanthr
phenyldiazene
methoxypyridazin
oxyhexyl
dicopper
dioxothieno
trimethylpyrano
sulfino
propyloxolan
##carbothioamide
cyclohexylacetyl
cyclohexylpyrrolo
046
carboxyanilino
diaminohexanoylamino
##methanedi
##antalum
hexylpyrrolo
dithiin
methylpropanenitrile
adamantyloxy
##tetradecyl
carboxypropanoyloxy
nonylphenoxy
##atetracontane
diphenylphosphorylmethyl
hexaoxaoctacyclo
dioxaphospholan
hentetraconta
91
mol
##ete
##henicosane
methylimidazolidin
methylethane
oxatri
hydroxyfuran
trihexyl
phenylpyrimido
##ular
methoxyanthracene
dimethylhydrazinyl
dimethylhydrazine
##ecular
oxydec
cyclotetradeca
trimethylpentyl
decanoic
nonanyl
diphenylpenta
octahydroazulen
dicarboximidamide
cyclopropylidene
cyclopropylmethoxy
pentyloxolan
sulfanylethylsulfanyl
octaethyl
methyloctanoyl
heptazacyclotricos
oxyhexanal
azanidabicyclo
##aluminum
tetrafluoropropoxy
nitramido
hydroxypentadecyl
trideuteriomethyl
molecular
90
##stann
##idium
ylchromeno
methylquinazoline
oxooctadec
phenylhydrazine
methoxyethenyl
ethylfuran
##cycloheptyl
##cycloheptane
141
dihydroox
##pentalen
dihydroxycyclohexane
##hexanedioate
bromophenanthren
cyanoethoxy
acetamidobenzoyl
sulfonylpropan
sulfonylacetonitrile
219
hexadecaene
octahydroquinolin
iodobenzene
fluoropent
ethoxycarbonylphenoxy
cyclopropanecarbohydrazide
docosanoyloxy
carboxylatobutanoyl
dihydroindazol
decaenyl
oxooctanoyl
tetramethylhexadecoxy
8λ5
ylethanimine
methylhydrazinyl
methoxypent
aminopyrimidin
aminotriazolo
131
dihydroxycyclohexa
dihydroxyoctadeca
nitrooxan
tetrahydroisothio
tetrahydrothiopyrano
##propylamino
ethoxynaphthalene
enylpiperidin
heptol
propylpropanamide
sulfonylspiro
sulfonylcarbamoylamino
cyclohexylcarbamothioyl
tetramethylbenzene
cyclopentylcarbamoyl
hexadecanoyl
phosphorylmethyl
butoxybenzoate
silyloxy
docosanamide
ethynylphenyl
enoyloxypropyl
trityloxy
difluoropyrimidin
##rt
methyloctadec
##ony
phenylphenanthridin
ethylcarbamothioyl
dihydroxypentyl
hexamethoxy
bromoindolo
tetrahydrochromeno
##sulfanylbenzene
butylpiperidin
sulfamic
octacosan
cyanoindol
methanimidoyl
sulfonylacetic
cyclohexylmethoxy
diphenylmethyl
diphenylbenzene
diphenylphosphane
##benzotriazole
oxochromeno
benzoyloxyphenyl
tridecoxy
decahydronaphthalene
benzenesulfonyloxy
tetrahydroxycyclohexyl
dithiatricyclo
azadispiro
methylhexane
hydroxypentanoic
cyan
seleno
methylpropanoyloxymethyl
##hydrazonoyl
##cyclopentanecarbonyl
oxadiazin
##fluoropentane
cyclopentanecarbonylamino
bismuthane
##imony
##molybdenum
dimethylbenzimidazole
ethylbenzoate
oxybenzonitrile
nitrooxy
trimethyloxane
dichlorodibenzo
enylpyrrolidin
octazatetracyclo
propylpyrrolo
sulfonylcarbamate
carbamoylsulfanyl
fluoropurin
propoxybenzoate
butoxycarbonylamino
phenylsulfanylethanone
##ethanesulfonate
tritylamino
tritylsulfanylpropanoyl
pentachlorophenoxy
88
87
##ramide
ylpentacyclo
ylcarbamothioylamino
methylcarbamothioylamino
hydroxyicos
##atert
methoxybutyl
oxypentan
methylidenecyclopropyl
dihydrotriazolo
sulfanylthieno
dioxonaphthalene
bromomethylidene
dioxooxolan
trimethylethane
dichlororhodium
propylpyrimidin
##benzoyloxy
methylsulfanylbut
methylsulfanylmethylidene
sulfonylbenzimidazole
tetramethylquinolin
decanedioate
chloropyrimidine
acetyloxybenzoyl
octahydroquinoxalin
octahydroacridine
decahydropyrano
benzamidoethyl
##dithiol
methylhexanoic
ethylsulfonylpiperazin
pentafluoropropanoyloxy
hexazacyclodocos
dioxacyclohexadeca
ethanediimidamide
5λ5
ylfuro
ylimidazole
yldiazene
methylphenanthridin
benzenethi
phenylcarbamothioate
phenylcarbamimidothioate
phenylthiochromen
methoxypropanoate
12c
nitroimidazo
azirine
##asulfanyl
propylimidazo
sulfonylazanidyl
dodecamethyl
tetramethylcyclopropane
carbamoylsulfamoyl
##trium
dodecafluoro
chloroethylcarbamoylamino
ylsulfonylpiperazine
ylsulfonylazanide
henicosaene
nitrosopyrimidine
cycloheptylideneamino
47r
49r
##nitramide
heptaoxatetracyclo
europium
##operoxoate
methyloctadecanoate
hydroxydocosa
hydroxynonyl
hydroxyheptadeca
triazepin
phenylbenzohydrazide
phenylmercury
dimethylcyclopent
dimethyldodec
tetrahydroazuleno
dichloroquinolin
enylpiperazin
enylcarbamoyl
benzylsulfamoyl
hexahydrophenanthro
nonacosan
dodecahydrochrysen
trichloroacetamide
methylsulfonylspiro
pentylindol
pentylpyridin
ethylsulfanylphosphonic
methoxycarbonylthiophen
##hexadecan
benzenecarbohydrazon
peroxy
##fluorophosphate
niobium
##nium
ylcyclopenten
hydroxyphosphinate
oxoanthracen
chlorosulfonyl
##ecine
dioxazinan
dioxofuran
trihydroxypentoxy
benzyliminomethyl
propylpropan
tetrafluorophenoxy
decazabicyclo
phenoxypropanoate
methylpropylideneamino
benzoylsulfanyl
ethenylbenzene
trioxaspiro
oxopentadec
yloxypropanamide
pentamethylbicyclo
formylfuran
pentadecanyl
phosphonooxyphenyl
cycloheptylacetamide
heptafluorobutanoylamino
cu
##ethanimidothioic
ylbenzohydrazide
##oxetane
oxoisoquinolin
phenyloct
phenylbenzimidazole
phenylguanidine
methoxythieno
thiatetracyclo
ethylimidazol
ethylquinoline
oxyoct
sulfanylpyrazol
dihydroxymethylidene
nitrobuta
tetrahydrobenzimidazolo
tetrahydrocarbazole
trimethylheptadeca
trimethylpentadeca
enylpyrrol
benzylsulfinyl
propylpyrazol
hexahydroquinazolin
hexahydropyrrolizin
iminocarbamimidothioic
carbamoylpyrrolidin
##carbamic
ethenylsulfanyl
octahydropyrido
oxopentanamide
iodomethane
diaminohexanoic
enoxypropan
##phenanthridine
methylpropoxymethyl
carbonic
oxacyclodocosa
enylsulfanylspiro
hexadecylsulfanyl
dimethylcyclohexen
##pentadecyl
oxathiane
ethenesulfonamide
123i
fluoranthene
dimethyltetradecanamide
##asilocane
##titanium
##timony
##zirconium
dibenz
dibrom
methylhydrazinylidene
methylnonadec
oxoisochromene
dimethylguanidine
chlorobicyclo
oxyethanol
nitrocyclohexyl
dimethoxytricyclo
##anthren
methylsulfanylimidazol
dimethylaminomethylideneamino
cyclohexylpropanoyl
039
antimony
phenoxycarbonylamino
diphenylbutane
##carbonyloxy
carboxypentanoyl
hydroxyethyliminomethyl
yloxyethoxy
propoxyphosphoryl
tetraoxatetr
##tetradecan
##hexadecanoic
docosyl
##cyclohexanecarbonyl
butylsulfanylmethyl
diethoxyphosphorylethyl
cyclobutylmethyl
pentafluoropropanoylamino
cyclobutanecarbonylamino
##fluoropentyl
phenylmethoxycarbonylpyrrolidine
##ochlorite
##ypochlorite
diazoniadispiro
##bismuth
83
##ub
##cine
dibor
dilithium
methylpentacyclo
hydroxycyclohepta
triyne
oxodeca
phenylphosphane
dimethylcyclo
dimethylcyclopentane
dimethylcyclopropanecarbonyl
##phthal
dihydroisoquinolino
dihydroxypent
bromobenzene
dioxopyrido
butylideneamino
enylpropanamide
oxalo
thiapentacyclo
hexahydrochromen
tetramethylazanium
nonanoic
diphenylcyclopropyl
tetradecanamide
phenylmethoxypyridin
##propanoyloxy
hexahexaconta
ylsulfonylpiperidin
ethylsulfanylpropyl
phenylsulfanylbutyl
heptadecanyl
dipropylsulfamoyl
butylsulfanylphenyl
undecafluoro
chloropyridazin
oxidonaphthalene
dihexylamino
ethanethiolate
perimidin
rub
##adiazole
ylthiolan
difluoroprop
tripotassium
phenylcyclohexa
phenylaziridin
methoxypurin
aminopentoxy
chlorothiophene
chloroethanone
chloroacridin
enimidamide
tetrasulf
oxypent
methylidenehept
sulfanylformate
dihydroxyoct
bromoindol
bromophenol
trimethylhex
dichloroaniline
methylsulfanylthiophen
phenoxybutanoylamino
diphenylphosphinothioyl
iminohydrazinyl
tridecanoate
cyclopropylprop
cyclopropylquinazolin
oxidoimidazol
oxidophosphinothioyl
##propanedinitrile
hexafluorophosphate
sulfobenzoic
oxocyclohexene
methylcyclohexen
triazaheptacyclo
methylsulfinylethyl
azanidylsulfonyl
heptafluorobutanamide
triazacyclododecane
##heptadecane
difluorophosph
##peroxoic
phenylpropanehydrazide
dimethylcarbamothioylsulfanyl
methylaziridine
methylmercury
methylcyclopropanecarboxamide
dimethylcyclodeca
dihydroxyhept
tetrahydroisoquinolino
trihydroxyicosa
pentanoyloxy
dimethoxyisoquinoline
trimethylbenzamide
butylquinazolin
enylpyrrole
ylidenehydrazinylidene
diazaphosphol
tetrabenzyl
sulfonylethenyl
dienethioate
tetramethylcyclohex
nonanoyloxy
##tetracosane
yloxymethanimidothioic
hexadecanoic
pentamethyltetracyclo
methylsulfonylprop
##propanehydrazide
hexylphenyl
hexathia
dinitrate
enoxychromen
nitrosomethylidene
oxypropanenitrile
##oxaundecacyclo
dicyanopyridin
arsanylidene
diynamide
trinitrophenolate
53s
chloroplatinum
ylpentanenitrile
##phosphonamidic
diethoxyphosphinothioyloxy
methyldodecanoyloxy
acenaphthyleno
nonafluorobutyl
hexazaundecacyclo
yttrium
phenoxathiin
rubidium
##etidine
##onine
triacontan
dimethylarsanyl
ethylbenzenesulfonamide
oxybenzo
##hexacos
dioxopiperidine
trimethylhexadeca
ethoxybut
benzylpyrrolo
propylpiperidine
diethyltin
decanediamide
phenoxybutyl
iminoethyl
carboxyethoxy
octahydroisoquinoline
##octoxy
yloxyacetate
nitrosophenyl
tetraoxacyclo
##dodecanoic
sulfooxypent
49s
tetrazacyclododecane
hydroxyoctadecanoate
ylbutanenitrile
ylpentanamide
hexadecoxypropyl
hexaoxaheptacyclo
##phenoxazin
methylidenenon
methyldioxan
triacetyloxyphenyl
ylphosphoryl
yloxamide
methyldodecyl
oxotridecyl
phenylnon
phenylisoindole
phenylbenzenecarboximidamide
aminopropanoic
ethylcyclopentyl
tetratert
sulfanylphenol
nitrite
dioxothi
dimethoxybenzo
azanonacyclo
trimethylpent
trimethylfuro
acetylhydrazinyl
butylcyclohexane
sulfonylpropanamide
hexahydropyrazino
040
diphenylhex
iminoindol
oxobutanoylamino
dioxadithi
sulfonatooxymethyl
methylsulfonylpiperidin
methylsulfonylpiperidine
methoxycarbonyloxy
##carboximidothioic
sulfooxyethanimidothioate
phenylpentane
dienoyloxy
pentafluorobenzene
isocyanatomethyl
oxononanoic
hentriacontan
carbohydrazonate
tetradecanoyloxytetradecanoyl
##carbothioylsulfanyl
1bs
os
##inin
ylcyclopentane
methylazanide
trithiane
methoxycyclohexan
methoxymethanolate
chloroquinoxalin
ethylimidazolidine
##propanimidamide
oxypropanamide
dihydroxyundecyl
dihydroxydocosa
ethoxypropan
dichloroacetamide
sulfinate
heptazapentacyclo
propylimidazolidin
trifluoroethane
diazaphosphin
methylsulfanylbenzene
##dotriacont
methylpentanedioate
octadecanoyl
triacetyloxyphenoxy
cyanoethylamino
heptafluorooxolan
methylsulfanylmethylsulfanyl
propylsulfonylpiperazine
hydroxyhexacos
##methanedithioic
dithiazolidin
octahydroindolizin
decahydrocyclopropa
##phosphonoyloxy
heptadecafluorooctyl
aceanthrylene
osmium
4λ4
yloxolane
oxaphosph
hydroxyundec
trisulfon
methoxyiminomethyl
propanimidamide
chlorobenzohydrazide
thiatri
ethylbutanoyl
ethylhexan
enimidothioate
tetran
methylideneazanide
sulfanylamino
sulfanylbut
trihydroxyoctadec
dimethoxyaniline
butylpyrrolo
enylimidazolidin
propylpurin
sulfanylideneacetamide
benzodioxocin
sulfonylhydrazinyl
hexahydroisoquinolino
##benzenediazonium
acetyloxyacetate
methylpropylcarbamoyl
phenylmethoxyphenol
dodecahydronaphtho
pentahydrate
oxidoamino
dibromofuran
heptamethylpentacyclo
dithiine
methylhexanoyl
trichloropyridine
pentaoxabicyclo
ethenol
methylhexadecan
##cyclobutanecarboxamide
diazanidanonacyclo
##germyl
##methanediamine
##stannanylium
methylhydrazine
##amarium
hydroxydeca
tricyclohexyl
tribenzoyloxy
dimethylthiourea
dimethylhexadeca
dimethyldibenzofuran
##cycloheptan
120
##decanoate
##decanoic
##uranium
bromobutyl
dioxoisochromen
tetrahydroinden
pentac
dichloron
butylquinolin
carbamodithioic
propylpiperazin
propylbenzenesulfonamide
propylpentanoic
cyanopyrrolo
tetradeuterio
##uinazolino
phenoxybutan
diphenylcyclopent
iminofuran
enedinitrile
yloxybenzene
pentamethylpiperidin
triazoni
pentylbenzene
##silyloxy
tetradecaoxaoctacyclo
trimethylsilyloxyoct
pentahydroxyhexanoic
##dodecacyclo
42e
dodecylphenyl
carbamimidoylsulfanylmethyl
nonylsulfanyl
48r
thiadiazinan
dimethylpentane
##boron
diynoxy
triiodoanilino
triethoxybenzoate
##asiletane
phosphonatooxymethyl
propoxycarbonylanilino
dioxaphospholane
hexaoxatricyclo
cesium
dibenzothiophen
89
ylheptan
methyltetrazole
hydroxybenzenecarboximidamide
##onane
methoxyquinazolin
dimethylundec
ethylimidazo
sulfanyloxan
dioxobutanoyl
dimethoxybenzaldehyde
benzylpyrazolo
benzodioxaphosph
diethylbenzene
sulfonylimidazole
sulfonylpropanoate
diphenylbutyl
iminopyrimidin
trimethoxyoxan
ethenylsulfonyl
octahydrocyclohepta
phenylmethoxyethoxy
phenylmethoxybenzoate
trioxacyclo
cyclopentylphenyl
phosphorylamino
butoxybenzamide
phenylsulfanylpropyl
nitrosoethenol
triphenylstannane
octyloxiran
sulfooxyoxane
phosphonopropanoic
diazoniatetracyclo
hydroxypentanoyl
tribromophenoxy
benzenecarboximidoyl
isothiocyanatobenzene
bromonaphthalene
##methanehydrazonothioic
hydroxytetradecanoate
cyclohexyloxycarbonyl
dodecanoyloxytetradecanoyl
propoxycarbonylphenoxy
dioxaphosphepin
cyclohepten
heptafluoropropoxy
dideuterio
tetrachloroplatinum
##cyclobuten
92
methylisochromen
oxepine
hydroxybutane
hydroxytetradeca
triynyl
oxohexanamide
oxoundecyl
ethanethioamide
ethylhexanoic
sulfanylbutanamide
bromopurin
dioxopiperazine
dimethoxybenzohydrazide
octachloro
benzylspiro
heptachloro
tetrapropyl
methylsulfanylthiophene
diethylurea
sulfonylbenzohydrazide
nonazapentacyclo
phenoxybutanoyl
phenoxyazetidin
trimethoxyxanthen
acetyloxyacetyl
##tetrasiletane
dioxaoctacyclo
decahydroindeno
ylsulfanylphenyl
thiochromene
dimethylazaniumylidene
ethylaminomethyl
##azocane
benzamidobenzoyl
benzamidobenzoate
trimethylsilyloxypropyl
oxoheptanoyl
dimethylpropanoyloxymethyl
##ropentacyclo
hexadecylamino
sulfinylamino
benzylsulfonylpiperidin
tributylstannyl
benzodithiazine
##docosane
hexaoxacyclo
triaminopyrimidin
##mercurio
##chlorate
##ethanedi
methylisoindole
oxoundeca
methoxytricyclo
##cyclooct
##cyclobuta
oxytetradec
oxybutanedioic
##perchlorate
propanethioate
trimethylpyrazolo
butyliminomethyl
enylmethyl
propylbenzoyl
propylphenol
oxaoctacyclo
diazoc
methylsulfanylquinazolin
036
decazatricyclo
diphenylurea
##carbamimidate
acetyloxypropanoate
tetraenal
cyclopentylpropanoylamino
yloxyimino
thiocyan
hexapentaconta
ylsulfonylpyrrolo
icosoxy
benzamidoacetyl
azaniumylpropanoyl
phenylchromeno
octylphenyl
nonylphenol
47s
##idenetricyclo
52r
##arsonic
oxooctanoic
##alumane
octahydroindolizine
triynoic
dithiocyanate
##pro
dihexadecyl
dialuminum
methylisoquinoline
methylcyclopentan
oxoisochromen
phenylquinoxaline
phenylpyridazine
oxybutane
dihydroacridin
dihydroxyocta
trimethylhexyl
dichloromethylidene
enylimino
enylcyclopropane
octazanonacyclo
propylimidazol
sulfonylpyridine
sulfonylpyrazole
hexahydroporphyrin
diphenylacetohydrazide
benzoylphenoxy
dihydropyrazino
yloxyphenoxy
difluorobenzene
hexylidene
ylsulfonylbenzimidazol
dinitroprop
enoxyethoxy
phenylsulfanylpropan
icosanamide
phosphonooxycyclohexyl
heptaoxa
pentahydroxyhexanoate
heptylphenyl
##terbium
oxacyclohexadec
tetracosanoylamino
tetrachlorodibenzo
butanedinitrile
hydroxyiminopropanamide
methylsulfinylphenyl
phenyldiazenylaniline
tribromomethyl
tritylimidazol
oxononyl
carbamimidate
triazacyclooctadec
benzodithiazole
octadecanoyloxypropoxy
##anedithioate
dioxidoazaniumylidene
tellu
methoxyethoxymethoxyimino
trisulfooxy
neodymium
##boronic
##eodymium
##ras
methylphosphinic
phenylphthalazine
phenylthiadiazole
dimethylquinoxaline
dimethylcyclopentan
dimethyladamantane
##cyclohept
126
tetracontan
oxyphosphinic
bromobut
nitronaphtho
dioxocyclohex
tetrahydrocyclodeca
tetrahydrocyclopropa
trimethylpyrrolidin
trimethylheptan
ethoxymethanolate
enylimidazol
cyanothiophen
diethylcarbamothioate
cyclohexylpropan
hexahydrocorrin
diphenylpropanoyl
diphenylfuro
octahydropicene
phenylmethoxybenzaldehyde
anilinomethylidene
pentathia
pentaenethioate
hydroxypropylidene
propoxyanilino
enoxycarbonyl
##dithiazol
##tridecanoic
phenacylindol
methylcyclohexene
hydroxypentanoate
dimethylpropanethioate
methoxyethoxymethyl
methyltetradecanoate
methylnonan
sulfonatooxyethylsulfonyl
cyclododecylamino
dimethoxyphosphinothioylsulfanyl
##oselenoic
phenylethenesulfonamide
##raseodymium
##xyl
ylcyclopent
ylchromene
ylquinoxaline
diselanyl
##phenylene
hydroxyhexanoic
hydroxybenzenesulfonic
trisulfonate
oxoquinazoline
methoxypropoxy
aminobenzene
dimethylcarbamimidothioic
methylidenebutanedioic
dihydroxyoxolane
fluorobenzoic
nitroxyl
dioxothiolane
phenaleno
dichlorocobalt
heptanoyloxy
propylcyclohexane
oxaheptacyclo
methylbutanedioic
sulfonylcarbamoyl
decoxyphenyl
decazaheptacyclo
diphenylethane
phenylmethoxynaphthalen
phenylmethoxypyrrolidine
##irane
heptaenylidene
heptamethyloctacosa
octylazanium
phenacylidene
pentafluorobenzoate
triethylphosphane
##idenethi
isothiocyanatomethyl
52s
dimethylbenzenecarboximidamide
ylcyclodec
##ethenediazonium
dichloropropyl
methylsulfonyloxypropyl
methylcyclopenten
tetrafluoropropyl
peroxide
ylethanethione
2λ4
tantalum
##orium
yloct
yloxiran
ylthiochromeno
diiodophenoxy
methylquinoxaline
methylicosanoate
hydroxyazanium
oxoacridin
phenylmorpholine
methoxyphenanthrene
dimethylazetidin
chlorothioxanthen
ethylazanide
oxyhexanoic
dihydrodibenzofuran
sulfanylspiro
sulfanylbutyl
nitrobut
dimethoxyindol
enyloxolane
benzylpyrazol
benzylquinazolin
cyanopyrimidin
tetramethylheptane
decone
diphenylmethoxy
##rophenanthrene
##phosphin
acetyloxypropyl
iodopyrazol
yloxyoxane
cyclopropyliminomethyl
dienedioate
hexamethylpentacyclo
diethoxyethylsulfanyl
hexylazanium
pentadecoxy
heptakis
4bh
oxacyclooctacosa
propylsulfanylspiro
butylsulfanylethyl
dimethylheptane
dicyclohexyloxy
56r
dichloropropanoate
benzodithiazin
methyldecan
tetrazanidahexacyclo
tetranit
95
##hec
dioctadecyl
methylcarbamodithioate
hydroxyanthracene
hydroxyhexadeca
oxothiophen
oxothioxanthen
phenylethanimine
aminobut
aminopyridine
dimethylpyrazin
chlorochromen
ethylhydrazine
##cyclooctane
methylideneheptanoate
##digane
fluorobenzonitrile
dioxodecan
trimethylpyrido
##orate
octacyclo
benzylfuran
propyldisulfanyl
ylidenebicyclo
tetraoxanonacyclo
acetamidopropanoyl
methylsulfanylbenzenesulfonamide
diethylprop
sulfonylsulfanyl
cyclohexylmethanone
phenoxyaniline
carbamoylimino
trimethoxysilylpropyl
propanoylpiperazin
methylpropanedioate
uranium
diaminoquinazolin
##methanimidothioate
yloxybenzoate
difluorobutanoyl
pentadeuterio
sulfamoylbenzoate
sulfoethyl
phenylethenylamino
##terephthalic
chloropropoxy
tetramethoxychromen
deuterio
45s
azeto
benzoyloxyethyl
phosphanylethyl
octadecylsulfanyl
dimethylpropylidene
pentazacyclohexadec
##arsinic
methylbutanoyloxymethyl
methyldecanoyl
methylundecan
acenaphthylene
tetrathiatricyclo
benzenecarbohydrazonate
samarium
##tel
ylcyclopropyl
ylperoxy
methylundeca
methylcarbamimidothioate
methylthiadiazol
hydroxyhexan
oxoisoquinoline
phenylphenazin
methoxytetradec
methoxyindolo
dimethylpyrazine
chlorohex
chlorofuran
ethylpyrrolidine
15ar
sulfanylethanol
fluorobenzenesulfonate
##osil
nitrobenzimidazole
dicyanide
dioxopropan
dimethoxypropyl
ethoxycarbonimidoyl
acetylpyrrolidine
propylpent
sulfonylbenzotriazole
cyclohexylcyclohexyl
tetramethyldeca
tetramethylheptadeca
tetramethylcycloundeca
diphenylbutanamide
diphenylethylamino
trimethoxybenzohydrazide
propanoylindol
octahydroazulene
tridecanoyloxypropan
dioxadispiro
iodoaniline
tetraenethioate
tetradecahydroindeno
difluoroethyl
methylbutylidene
ylpropylidene
nonadecyl
benzylidenehydrazinylidene
carboxylatomethoxy
ylmethoxycarbonyl
aminomethylidene
hydroxyiminoethyl
dimethyloctanoate
triethoxyphenyl
hydroxyoctadecanoic
dioxaborole
dioctyltin
dimethylnonan
##methanedithioate
thallium
ethanediimidothioic
diboratricyclo
93
##af
ylpyran
diiod
methylsilyl
methylpyrano
oxazepan
trisulfanyl
oxooxetan
phenylethanimidamide
enimidothioic
oxypentanoic
dihydrobenzimidazole
##thietane
dioxaphosphol
##adecan
hexanylidene
nitrocyclohexa
dioxoquinolin
dioxopyridin
trimethylstannyl
ethoxyacetyl
ethoxyaniline
acetyliminocyclohexa
enylurea
enyloxiran
sulfuro
tetrafluo
methylsulfanylpropan
methylsulfanylanilino
sulfonylazanium
benzoxazino
phenoxycarbonyl
phenoxymethylidene
diphenyltin
diphenylcyclobutane
anion
trioxothi
oxopenta
iodoacetate
##silole
sulfonaphthalene
undecanamide
dibromoquinolin
pentylbenzoic
##anoyloxypropoxy
propoxypropan
acetyloxymethylidene
sulfoquinolin
methylpropoxycarbonyl
azidooxolan
##ethanolate
methylhexanamide
trinitrate
octadecylcarbamimidothioic
dimethylpentanoate
heptafluorobutanoyloxy
diacetylamino
oxazaborol
tetracarboxylic
dioxaborinan
hexacyanide
oxonio
selenocyanate
##afnium
##magnesium
ylcarbamimidoyl
methyldecyl
methylphenazin
##oxadecacyclo
oxopyrrolo
methoxybutan
methoxypyrimidine
dimethylimidazolidin
chlorobutan
chlorobutanoylamino
chlorodithiazol
##utetium
##decoxy
methylidenecyclopropane
fluoronaphthalen
trimethylcyclo
dichlorobenzenesulfonamide
enylpyridin
enylpyridine
cyanobenzoyl
methylbutanedioate
sulfonylphenoxy
cyclohexyliminomethyl
hexahydropentalen
tetramethyloxane
tetramethylpyrrolidin
nonoxyphenyl
diphenylpyridazin
hexadecahydroxy
ethenylpyrrolidin
tridecahydroxy
yloxybutan
sulfonat
trimethylsilylbut
tetrahydroxybutyl
diazadispiro
azaniumylacetyl
nitrosoamino
##diaziridine
benzoxathiin
ethynylcyclohexyl
hydroperoxypropan
##acenaphthylen
##acenaphthylene
diiodoplatinum
triazacyclononadec
hydroxytetradecanoylamino
disulfate
##benzenecarboximidate
##asilolane
chloropentyl
phosphonatomethyl
oxyhexadecanoic
azocane
211c
dipropoxyphosphoryl
trisulfate
benzodiazaphosphole
oxazaphospholidin
arsanylidenearsanyl
96
94
ylmorpholine
benzazocine
phenylcyclohexylidene
phenylphosphinic
phenylpurino
dimethyloxolane
dimethylcyclohexylidene
ethylpyrazolo
ethylcarbamothioylamino
ethylphosphonic
ethylaziridin
oxybutoxy
methylidenefuran
dihydrocyclopropa
sulfanylhexyl
sulfanylbenzonitrile
dihydroxycyclohex
dihydroxybenzene
##diphosph
##diselanyl
fluorobenzimidazol
tetrahydrochloride
tetrahydrocyclohepta
trimethylpropan
trimethylbenzimidazol
trimethylnon
ethoxypyridine
propylbenzo
##itrite
tetrahexaconta
methanethioate
methylsulfanylmethanimidothioic
cyclohexylbenzimidazol
cyclohexylpiperidine
042
phenoxyoxane
diphenylquinoxaline
iminoisoindol
benzoylanilino
octahydroisoindol
dioxathiolane
dodecahydrobenzo
trimethylsilylethyl
hexabromo
phenylsulfanylbutan
ylpropanedioate
ethoxycarbonylcarbamoyl
tetraoxaspiro
carboxymethylcarbamoyl
methylindolizin
phenylethenylsulfonyl
ylmethoxymethyl
oxacycloicosa
cycloheptylidene
dimethylpropanoylsulfanyl
diphenylethylidene
triiodobenzoate
58s
disulfo
diphenylpropylamino
octadecoxypropan
methylheptadecanoic
dimethoxyphosphinothioyloxy
tridecafluorohexyl
tetraoxatetrasilocane
heptadecafluorooctylsulfonyl
germ
##hypochlorite
##cin
disil
methyldodeca
hydroxycarbamoyl
hydroxyfluoren
hydroxyethenediazonium
oxobenzimidazole
oxoinden
phenylphosphoryl
phenylindeno
phenylpyrazine
methoxyfuran
methoxypropanoyl
aminohexanoic
chloroquinazolin
##ecane
oxybenzaldehyde
dihydroquinazoline
dioxepane
cyclododeca
trihydroxyoctadecan
dimethoxyanthracene
trimethylstannane
trimethylpentadecan
##imidic
dichlorobenzo
enyldisulfanyl
benzodioxaborole
methylsulfanylpyrazolo
sulfonylbenzonitrile
cyclohexylpropyl
tetramethylpiperidine
diphenylpyrrole
diphenylcycloprop
oxymethylidene
propanoylspiro
carboxybenzoyl
acetyloxymethoxy
ylsulfanylspiro
ynylphenyl
ynylbenzene
ynylthiophen
azaniumylmethyl
azaniumylpropyl
methylindolizine
triphenylpropyl
triphenylplumbane
heptylpyrrolo
sulfooxybut
##hexadecanoate
methylchromeno
oxyethylamino
tetrachlorobenzene
51s
54r
triiodoprop
dimethoxyphosphorylsulfanyl
##heptadecyl
dioctylamino
cycloheptanamine
oxyhexadecan
##atriacontyl
dotetraconta
tetrahydroisothiochromen
triazoniatricyclo
98
hafnium
praseodymium
ylcarbonimidoyl
diperchlorate
methylsulfanium
##azaphosphole
hydroxyphenolate
phenylcarbamimidoyl
phenylpyrazino
dimethylacridin
dimethylars
ethylbenzimidazole
##propoxyphenyl
oxyhexanoyl
oxynonadec
dihydropteridine
sulfanylmethanimidothioate
##rolidin
dioxepan
##pentacos
dihydroxybut
##diazinane
bromospiro
bromothiophene
nitrobutyl
dioxoisoquinolin
tetrahydroquinoxalin
trimethyloct
trimethylbenzoic
trimethyldodec
dichlorobenzenesulfonate
benzodioxa
##sulfonio
methylsulfanylpurine
sulfonylacetate
dodecanoyloxypropyl
nonanedioate
nonazahexacyclo
diphenylbicyclo
diphenylmethanimine
iminopurin
octahydroindeno
tridecaoxo
cyclopropylthiadiazole
methylheptanamide
decahydrocyclohepta
undecoxy
trichloroethenyl
tetracyanide
##azocan
enoxyethyl
trimethylsilyloxypropan
tetraoxabicyclo
##yspro
chloropropanamide
tricarboxamide
oxoheptadec
pentanehydrazide
##xanthene
trichloropyrimidin
hydroxybutoxy
tetrazacycloheptadecan
chlorobutoxy
##ocine
ynoxynaphthalen
benzothiadiazepine
cyclooctylamino
cyclooctylideneamino
phenylpentanenitrile
oxooctanoate
benzodithiazol
benzodithiole
thioxanthene
fluoropropan
##benzenethiolate
triethylsilyloxy
oxaphospholan
thiocyanic
##ysprosium
gallane
##etidin
methylazetidin
methyltrisulfanyl
hydroxynonadec
phenylpyrazin
dimethylpurin
dimethyltrideca
chlorocopper
ethylpropane
ethylcarbamimidothioic
oxyiminomethyl
methylidenecyclohex
dihydropteridin
dihydrophthalazine
sulfanylquinazoline
##pentanediamide
cyclooctan
##osulf
##osmium
trimethyloxolan
ethoxyamino
ethoxyquinoline
ylmethylazaniumyl
butylpyrazolo
butylcyclohexylidene
enylbenzimidazole
benzylcarbamothioylamino
trifluoromethylsulfinyl
methan
methylsulfanylpyridin
methylsulfanylpropanoyl
hexahydroisochromen
tetramethyltrideca
diphenylimidazole
iminoprop
thiadiazolidine
octahydroquinolizin
##tetra
iodoacetamide
iodobenzoic
cyclopentylethynyl
9ah
pentathi
ylsulfanylpyrrolidine
methylsulfonylethyl
propoxychromen
propoxybenzene
dinitrobenzoic
##ethioyl
ethoxycarbonylpiperazin
##nonanoate
docosanoylamino
sulfanylethylidene
decafluoro
dimethylbutanoylamino
pentafluorobenzoyl
tetrafluorobenzene
hydroxyiminopropyl
phenylbutanoylamino
pentafluoropropanoyl
methylhexadecanoate
benzodithiol
diazacyclohexadec
##henicosanoate
methylheptadecanoate
terbium
carbonochloridoyl
131i
9λ6
λ1
##1c
##ylen
diimino
methylbenzonitrile
methylindazol
##methylbenzene
oxoox
oxoisoindol
oxodocosa
phenylpteridine
methoxysulfonyl
aminopentanedioate
aminomethoxymethyl
dimethylpurino
ethylbenzoyl
ethyloxiran
##propanediamide
fluoroacetyl
##hexacosa
nitroquinazolin
pentoxymethyl
dimethoxyphenanthrene
butylpyridine
enylsulfonyl
enylsulfinyl
sulfanylideneimidazol
methanimidothioate
methylsulfanylbutan
methylsulfanylmethanehydrazonothioic
tetramethylpyrrolo
decamethyl
nonacyclo
diphenylcyclohex
diphenylhept
diphenylethanamine
##carbamodithioic
enoylimino
triazatri
dibromoethenyl
pentylbenzoyl
pentylcyclopentyl
sulfamoylbenzoic
ylsulfonylbenzoic
dichloropyrimidin
adamantylidene
##thiopyran
hydroxypropanoylamino
carboxyethylsulfanyl
nonafluoropent
ylmethane
benzoxathiole
cyanoethylsulfanyl
tetrachlorodibenzofuran
phenylpentanoyl
ethylsulfonylphenyl
ethylsulfonylpiperidin
trichloropent
ylethenylamino
55r
diphenylphosphorylethyl
difluoropyridin
ethylcarbamoyloxy
hexacosanoylamino
oxidonaphthalen
trifluoromethanesulfonic
oxyhexadecanoate
pentadecafluoroheptyl
##ypo
97
nz
##lanyl
##perim
yloxirane
##olmium
tritriacontane
oxoindeno
phenylmorpholin
aminoheptyl
dimethylbenzohydrazide
dimethylaziridine
oxycyclohex
oxyhexadeca
oxypentanoate
147
dihydrophenazine
##phenoxathi
##pentacontane
dihydroxypentanoyl
hexachlo
dioxothian
tetrahydroanthracene
trimethylpyridine
butylcyclopentane
indium
benzylanilino
propylthiochromeno
acetamidopropanoylamino
cyclohexylpyrrolidine
cyclohexylquinazolin
cyclohexylthiourea
tetramethylnonadeca
propanoylphenoxy
acetyloxyprop
cyclopentylpropan
tetradecahydrophenanthro
cyclopropylethanone
ynal
pentamethyltricyclo
octadecaene
trichlorobenzene
fluorophenol
chloroethylcarbamoyl
hexaide
hexafluoropentane
benzylsulfanylpropanoyl
##pentanal
pentanal
trimethylsilyloxyimino
nitrosoanilino
sulfomethyl
##tetradecanoate
dipropylbenzamide
nitrobenzenediazonium
hexanehydrazide
carbothioylamino
dicyanophenoxy
##azonine
7bh
isothiochromen
cyclobutylamino
dimethylpentanamide
##formic
heptafluorobutanoyl
sulfinylacetate
ylbenzenediazonium
55s
octadecoxypropoxy
dodecoxyethoxy
selenium
methylundecanoyloxy
oxazaphosphinane
thorium
trihydroxide
diazanidahexacyclo
hexahydroindolizin
tetrabutylazanium
dicyclohexyloxyphosphoryl
##osilane
lutetium
##ethanethioamide
ylnitrous
hydroxybenzenesulfonate
triazepan
benzazocin
oxoacetaldehyde
methoxychromene
methoxyacridine
aminoisoindol
ethylpropanamide
##cyclooctyl
dioxepino
fluoroindol
bromopropan
dioxooct
dioxopyridine
trihydroxybutan
butylnaphthalene
enylcyclohex
benzylquinolin
benzylcarbamate
propylsulfamoyl
##lead
cyanomethylidene
##sulfonimidoyl
diphenyloxolan
carboxyphenoxy
hydroxyethylcarbamoyl
dihydropyrazine
formonitrile
dibromophenol
31z
ynylazanium
ynylspiro
ethylsulfanylthiophen
methanehydrazonothioic
oxopentanenitrile
diacetyloxymethyl
methylbutanenitrile
sulfobutanoic
triphenylstannyl
heptyloxiran
adamantylmethoxy
iodanium
octaox
cycloheptylbenzamide
dimethylidenebicyclo
phosphanylpropyl
hydroxyoctan
50s
nitropropane
oxocyclopentylidene
##benzenecarboximidoyl
##asilacyclo
azacyclopentadecan
chlorophenanthren
hexazacyclooctadecane
ylbutylidene
methanidylpropane
methanidyloxolane
perchlo
triazacyclotridecane
##cyclobutene
azanylidyneoxidanium
dispiro
methylanthracen
methylphenothiazin
oxepan
hydroxyisoquinolin
hydroxycarbonimidoyl
hydroxyhexanoate
hydroxydodecyl
hydroxyethanimidamide
##ulium
methoxyethane
methoxyisochromen
dimethylphosphoryl
dimethylphenanthrene
dimethylpteridine
dimethyldecan
##cycloocta
oxycyclopent
oxycyclohexene
132
methylideneocta
methylidenecyclopentane
dihydrophthalazin
dihydrophenanthro
hydroxymethylamino
dioxepine
dihydroxybenzaldehyde
bromobenzo
bromobenzenesulfonamide
dioxobut
dioxouranium
pentasodium
azadecacyclo
##aselen
ylmethylimino
enylimidazo
sulfin
propylheptan
##pyrrolizine
cyanocyclohexyl
cyanothieno
methylsulfanylbenzoate
sulfonylethanone
hexahydrooxireno
phosphaspiro
tetramethylcyclohexane
nonatetracontane
phenoxybut
diphenylpiperazine
diphenylpropanoic
diphenylpropanoylamino
trimethoxysilyl
carboxybut
tetradecanoyl
hydroxyethylsulfamoyl
phenylmethoxyamino
phenylmethoxybut
phenylmethoxyoxolan
##trit
oxidobenzo
decahydroquinolin
trichlorobenzimidazol
ylsulfanylbutan
dibromoethyl
trimethylsilylethynyl
phosphorylmethoxy
ethylsulfanylcarbonyl
methylpropanal
dinitroethyl
nitrosobenzene
##nonanoic
cyclopropanamine
octylsilane
sulfooxyethyl
trioxadispiro
ylcyclohexylidene
octadecylazanium
pentaoxacyclo
##formonitrile
sulfanylpropanenitrile
hydroxyoctanoyl
triiodobenzoyl
fluoranylethyl
##asilapentacyclo
114c
benzenesulfinylmethyl
dinitrophenolate
hydroxytetracosanamide
tetraphosphacyclo
dysprosium
ylcyclopentan
dimeth
dihexadec
diisothio
dipropoxyphenyl
methylcyclopenta
benziod
oxotetradeca
phenylnaphthalen
phenyltricyclo
ethyne
methoxycyclohex
dimethylbenzonitrile
dimethylphosphanylethyl
ethylbut
ethylcarbazole
##cyclodec
oxyhexanoate
136
sulfanylbenzoyl
fluoroacetate
bromopropanoyl
trihydroxyxanthen
azide
trimethylindole
ethoxyacetamide
dichlorobenzoic
dichlororuthenium
enylpent
benzyltriazol
heptazatetracyclo
propylpyrano
##carboxy
sulfanylideneimidazolidine
carbonyloxymethyl
methylbutoxymethyl
methylsulfanylbenzoyl
sulfonyloxyethyl
cyclohexylazanium
cyclohexylbutyl
044
phenoxybenzoate
diphenylcyclohexa
diphenylpiperidine
diphenylcyclopentyl
oxobutane
thiadiazolidin
methylpropylsulfamoyl
heptadecaene
anilinoethyl
##siletane
oxidobenzoate
undecanoyloxy
pentylbenzo
trimethylsilylphenyl
phenylsulfanylpyrazol
tetradecahydroxy
trimethylsilyloxyacetate
trimethylsilyloxypropanoate
sulfobutyl
phosphonopropyl
##cyclohexanecarboxamide
aminomethylideneamino
carbothioylsulfanyl
hydroxybutylamino
methoxyethoxycarbonyl
methyloctanoate
methoxybenzenesulfonic
propanoyloxyoxan
heptazacyclohenicosane
phenylindolizine
##sulfanylmethylsulfanyl
hexacosanoate
carbohydrazonothioate
diheptylamino
##stib
diphosphonooxycyclohexyl
ytterbium
dithiocarboxy
##bismuthane
##inino
ylhepta
diethynyl
##oxypropoxy
phenylazanide
methoxypiperidin
methoxyphenothiazin
dimethylpropanoic
dimethylbenzenesulfonate
oxyethanone
sulfanylpent
sulfanylpentyl
butanedial
##diborol
fluoroquinoline
cyclododecan
bromobicyclo
dichloronaphthalen
dichloromercury
butylbenzenesulfonamide
butylcarbamothioyl
heptanoylamino
propylthiophen
benzothiepino
benzodiazocin
acetamidoacetyl
diethylcarbamimidothioate
sulfonylphenol
cyclohexylpropanoate
cyclohexylbutanoate
tetramethylidene
decazatetracyclo
##sulfonyloxy
phenylpropanoyloxy
acetyloxybenzoic
phenylmethoxyphosphoryl
phenylmethoxyimino
iodopyrimidin
difluoromethylidene
oxidopyrazin
dienylbenzene
hexafluoride
methylbenzenesulfonohydrazide
pentanethioate
phosphonooxypropoxy
heptahydrate
##diazino
##anethioyl
diethylazaniumylidene
phenylbutoxy
nitropyrrole
benzoxathiepin
phosphonoethyl
phenylbutylamino
dienoylamino
pentafluorobenzamide
sulfonatoethyl
##borinine
dimethyloctanoyl
hydroxybutanediamide
cyclohexanecarbonyloxy
ylbenzenesulfonic
triethoxybenzoyl
tetrabromodibenzofuran
hexadecoxypropan
oxononadeca
##triacontyl
hydroxyhexadecanamide
ylbenzotriazol
hexachloride
oxatriazol
benzenethiol
cubane
dibenzhydryl
oxaloamino
ylmethanesulfonamide
##manganese
##quinazolino
##gallane
ylazetidin
ylbenzaldehyde
methylmethanimine
methylpyridazino
##oxybut
##ona
trioctyl
oxoicos
oxodecan
oxoethanethiolate
phenylox
methoxybenzonitrile
aminoacetic
dimethylnaphtho
dimethylxanthen
ethylbutan
ethylphenol
oxyhex
oxytrideca
sulfanyloxane
dihydroxyhexan
dihydroxyheptanoic
hexatriacontane
bromopent
trihydroxyboranuide
trimethyldi
trimethylpiperidine
dichloroquinoline
butylurea
sulfur
benzylpurin
heptanedioate
propylfuro
propylpiperazine
propylisoindole
diazirin
carbonylbenzoic
cyclohexylpropanoylamino
phenylethylcarbamothioyl
diphenylpyrazine
dihydropyrazin
anilinoethenyl
yloxyanilino
oxidopiperidin
dibromoprop
pentylphenoxy
pentylideneamino
hexaethyl
dithiino
tetrazaspiro
enoxycarbonylamino
ethoxycarbonylpiperidin
azaniumylcarbonimidoyl
tetraoxospiro
pentahydroxyhexanal
triphenylsilyl
octylbenzamide
phenyliminocyclohexa
hexanal
sulfanylpropanoylamino
arsorate
##atetracont
51r
pentazacyclopentadecane
hexafluoropropyl
trinitrobenzenesulfonic
dodecaenyl
oxathian
59s
cyclohexylidenehydrazinyl
hexachlorobicyclo
phenylcyclohexen
pentylsulfanylspiro
methylpentadecanoyloxy
phenoxypropoxyimino
thallane
dicyclopropylmethylideneamino
trioxatriborinane
oxazaborolidine
tetraphosphacycloocta
boric
er
gallium
ylbenzonitrile
ylazetidine
diselen
methyltetradeca
##azadecacyclo
hydroxycyclopent
hydroxyhexanoyl
tripentyl
phenylphosph
phenylisoquinolin
phenylaziridine
methoxypropanamide
methoxyphosphinic
dimethylacridine
dimethylsulfamate
##propanedioic
12λ5
tetratetraconta
sulfanyloxolan
sulfanylphosphinic
dihydroxypentan
dihydroxydodeca
dihydroxyhexadeca
dihydroxytetradeca
cycloprop
cyclododec
nitrobicyclo
nitrooxymethyl
##propylidene
ethoxyethenyl
dichlorocyclohexa
dichlorozinc
butylpiperidine
butyldisulfanyl
octatetraconta
propylphthalazine
ylidenequinolin
cyanoguanidine
carbonylphenyl
cyclohexylacetic
hexahydropentalene
phosphetane
038
tetramethylcyclopentane
phenylethylcarbamoylamino
diphenylpyrrolidin
trimethoxybenzoic
trimethoxytricyclo
phenylmethoxybenzoic
phenylmethoxycarbonylphenyl
hydroxypropanal
diaminopyrido
cyclopentylpyrrolo
##methanimidate
yloxysilolane
oxidopyridazin
octadecaen
trichlorodibenzofuran
ylsulfanylpropan
dithiabicyclo
enoxysilane
phenylsulfanylanilino
phenylsulfanylquinolin
phenylsulfanylbenzene
icosanoylamino
benzylsulfanylethyl
##acosanoic
triphenylpropan
dipropylfuran
aminoethylidene
phenylbutanediamide
enoyloxyethyl
nitrobenzenesulfonyl
nonylphenyl
sulfonatomethylamino
benzenesulfonamidomethyl
azanidylpropyl
dimethylcyclohexene
methyloctanoic
dimethylbenzenesulfonic
yliminophenazin
hentriacontane
trifluoroethoxymethyl
methylhexadecyl
methylhexadecanoyloxy
azacyclotridec
azacyclopentadec
nonamethylspiro
disulfonatooxy
tetracontahydrate
diethylcarbamoyloxy
diisocyano
oxocycloheptyl
nitrosophenol
##candium
oxazaphospholidine
trisulfonaphthalen
dichloronickel
hexaoxacyclooctadecane
trimethylcyclotetradeca
sulfooxybutanimidothioate
erbium
5λ4
holmium
##adiazol
##λ3
##idyn
dibutan
ditrit
methylhexacyclo
methyltridecyl
hydroxyheptan
oxooctadecan
methoxybicyclo
methoxypyrazolo
methoxypyrrolidin
aminospiro
chloroacetic
chlorotricyclo
oxypentane
oxyheptadec
methylidenepentyl
dihydroquinolizine
dihydrochrysene
##pyrylium
dihydroxypropanoyl
hexoxymethyl
hexasodium
##hexatriacontane
dioxobutyl
dioxoindene
dimethoxyoxolan
trimethylpiperazine
trimethylimidazo
ethoxybenzaldehyde
dichlorobut
butylspiro
enylchromen
enylpurin
enylpyrido
enylpropanedioate
heptatetraconta
cyanoimino
tetraide
tetraiodide
dopentaconta
sulfonylimidazolidin
cyclohexylbenzene
cyclohexylpropoxy
dodecazabicyclo
hexadecafluoro
hydroxyethylsulfonyl
ylethylcarbamoyl
tetradecahydrobenzo
27λ4
yloxybutyl
cyclopropylphenyl
hexaenethioate
ylsulfanylfuran
ylsulfanylpropanamide
pentylbenzimidazol
tetrahydroxyhexyl
hexylcyclopropyl
ylsulfonylphenoxy
ylsulfonylpyrrolidine
##ethioic
methylbenzenesulfinate
nitrosoindol
pentahydroxyhexanamide
hydroxypropanoyloxy
methylpropanoylcarbamothioylamino
oxyethylidene
##tridecanoate
ethynylbenzene
chloropropane
dodecylbenzenesulfonic
cycloheptylcarbamoyl
hexadecanoyloxypropoxy
##phosphinothioylsulfanyl
ethylsulfonylpiperazine
phenyldiazenylanilino
hydroxypenta
methyloctanamide
ethenoxyethyl
##nonadecane
##hydrazonate
disulfophenyl
fluoranylmethyl
oxononadec
azacyclododec
azanidahexacyclo
##henicosyl
hydroxyhexadecanoic
##tricosa
fluoropropyl
triphenylphosphaniumyl
tetrazacyclohexadecane
hydroxydodecanoyl
diphosphate
##dibenzothiophen
methanethiolate
##cinnolin
heptafluoropropylsulfanyl
oxynonanoate
tellanyl
diethylcarbamothioylsulfanyl
difluorophosphanyl
diazaphosphinan
##hectan
dimethylarsoryl
yohimban
ylpentanoate
ylazulene
methylmorpholine
methylthiochromeno
oxonium
hydroxyhexanamide
##onaphtho
oxopentacyclo
oxooxane
phenylocta
phenylcyclopentan
phenylethanethioate
dimethylicosan
dimethylethenamine
chlorocyclohex
ethyloct
ethylpentan
ethyldiazenyl
methylidenebutanedioate
dihydroperoxy
15h
sulfanylpropane
bromoaniline
dioxoimidazo
dioxopyrano
dimethoxyethylamino
trimethylgermane
acetylsulfanylmethyl
butylbutan
enyloxolan
enylpiperidine
sulfinamide
heptatriacontan
benzodiazocine
acetamidopropyl
methylsulfanylthieno
methylsulfanylaniline
dodecone
butanethioate
phenoxypyrimidin
oxobutanedioate
tetradecol
tetradecanoic
methylpentylidene
dihydropyridazino
anilinoanilino
trioxido
iodoquinolin
cyclopentylcarbamothioyl
yloxynaphthalen
yloxybutanoate
yloxysilinane
fluoropyr
methylsulfonylpyridine
thiohypochlorite
trimethylsilylprop
ynylpiperidin
hexathi
ylsulfonylmethyl
ylsulfonylthiophene
tetradecaen
methoxycarbonylbenzoyl
icosanoyloxypropyl
nitrosoguanidine
heptanal
##cyanat
adamantylsulfanyl
sulfanylethylazanium
triethylplumbane
methoxychromeno
ethoxyethylidene
oxoheptadeca
butylcarbamoyloxy
##atooxycyclohexyl
dicyclohexylacetamide
hydroxypentadeca
tetrazaundecacyclo
dimethylpentanediamide
tritio
bromane
triethoxysilyl
hydroxyoctadecyl
phenylindolizin
benzodithiepin
disulfonato
selenazol
hydroxypentylamino
butoxycarbonylanilino
oxohexadecan
cycloocten
pentachlorophenol
diphosphono
dioxonaphtho
mercuriomethyl
tetraynoic
dioxadithiepane
tetranitro
##tellanyl
perchloric
benziodox
7λ6
##tungsten
##cu
yldec
yloctadeca
ylazaniumyl
methylpteridine
methyltricos
hydroxypyrazole
hydroxycarbamimidoyl
trifluorophosph
benzazonine
oxopurin
oxooctadecanoate
oxocine
phenylsilyl
phenylhexane
methoxypropane
methoxyphenanthren
aminobenzoic
aminocyclohexane
dimethylundecane
oxyamino
oxypentadec
154
sulfanylidenethi
dioxaz
dihydroxyphosphinothioyl
bromopropoxy
nitroindazol
dioxocyclobuten
dimethoxyquinoxalin
dimethoxyphenanthren
trimethylpentane
acetylthiophen
butylindol
butylimidazol
butylcarbamimidothioic
enylcyclohexane
enylcarbamoylamino
enylcarbamothioylamino
octol
octacosane
propylpentan
benzodioxasil
methylsulfanylpyrrolo
methylsulfanylbenzimidazol
methylsulfanylpyrazole
methylsulfanylmethanethioate
cyclohexylbenzenesulfonamide
phosphindole
##heptanamide
tetramethylpentanoate
nonanoyl
diphenylpentane
carbamoylhydrazinyl
##azaniumylidene
propanoylimino
octahydroindene
##tetrasulfanyl
cyclopentylmethanone
difluoroacetamide
difluoroaniline
difluoroethane
cyclopropylsulfamoyl
oxidoimino
methylsulfonylsulfanyl
hydroxypropylsulfanyl
chloroethylsulfonyl
diethoxypropyl
oxopropylamino
ylsulfonylaniline
propoxycarbonylamino
methylbutanethioate
benzylideneheptyl
##carboximidate
adamantylcarbamothioyl
dipropylpropanamide
carboxylatoethenyl
oxacyclododeca
oxobutylidene
hexanenitrile
enoyloxypropoxy
##onickel
hydroxybutylidene
methylphenolate
tricosanamide
hydroxyoctanoate
##tinium
isocyanatobenzene
sulfosulfanylethyl
ylpentanoic
difluoride
##ohydrazonoyl
sulfonyloxyoxan
selenadiazole
propylsulfonylamino
boronophenyl
##triacontanenitrile
silicon
##boranyloxy
dinitrite
oxodecanoyl
oxodecanoate
hydroxypentadecanamide
diphosphaspiro
dichlorophosphoryloxy
benzenethiolate
sulfooxypentanimidothioate
trioxothioxanthen
dimethanidyl
cyclohexylpropoxyimino
oxoniumylidene
trifluorophosphane
1λ3
ylphosphane
yltetrazole
dihexoxy
##oxyethoxy
hydroxymethoxy
hydroxytricyclo
##onon
triacetate
phenylcyclopent
aminopiperidin
aminobutanedioate
dimethylanthracene
chloroanthracen
ethylindole
oxypentadecyl
dihydrotriazole
##pentacont
##perylene
dimethoxybutan
ethoxypyridin
butylcyclohexan
enylchromeno
enylthiadiazole
octanediamide
propylimidazole
oxadispiro
sulfanylidenepyrimidine
cyanobut
diethylpropanamide
diethylbenzimidazol
sulfonylindole
cyclohexylacetate
hexahydroanthracen
nonazatetracyclo
nonanoylamino
nonatetracontan
045
phenylethyliminomethyl
phenoxybenzoyl
phenoxybenzenesulfonamide
diphenylcyclopenta
diphenylpyran
23h
dioxopyrrole
propanoylchromen
propanoyloxyphenyl
heptadecahydroxy
cyclopentylpentanoate
tetradecahydrochrysen
##silolan
pentaid
oxidopiperazin
trichlorobut
trichlorodibenzo
ylsulfanylpurine
dibromobenzoate
6bh
tetracyano
diethoxynaphthalen
silinane
dichloropyrimidine
ethoxycarbonylthiophen
ethaneperoxoate
ethanehydrazonoyl
heptapentaconta
nitrosoacetamide
triphenylpyrrol
triphenylpyridin
##anethioic
dipropylbenzenesulfonamide
azidopurin
decaoxadecacyclo
nitrobenzenecarbothioate
undecaoxaundecacyclo
##idenetetr
octadecylurea
isothiocyanatobut
henicosyl
selane
##methanesulfonic
nitropropanoate
triethoxysilylpropyl
ynoxypropan
chloroph
dimethoxyethylsulfanyl
sulfidoethyl
diazoacetyl
oxidospiro
ylcyclohexanecarboxamide
chlorobenzenesulfonyl
oxadiazinane
tetradecanoyloxypropoxy
sulfonatooxyoxan
heptafluoropropan
ynylsulfanylspiro
dihydroxybutylidene
##boranuid
tetrahydroxanthene
diethylboranyloxy
fluoropentyl
dimethylarsanylsulfanyl
trimethyldioxetan
8λ6
scandium
##enic
yloxane
ylindole
ylisoquinolin
yloctadec
ylundec
yloxadiazol
methyltetracene
methyladamantane
methylidyne
hydroxycarbamate
hydroxydodeca
hydroxypyrazolidin
triazanium
trifluo
trifluoropent
trifluoride
oxophenothiazin
phenylpurine
phenylisoquinoline
phenylhexanoate
phenyloctan
phenylthiochromeno
methoxybutanoic
methoxycarbazol
methoxyethanimine
aminopyrazolo
aminocyclopentane
dimethyltetrazol
dimethylcyclobutane
chloroindol
chloromercury
ethylpentyl
ethyltetrazolo
tetratriacont
oxypyridin
oxyimino
oxycyclohexen
##thiiran
dihydroxydec
bromobenzoic
nitroanthracene
nitroindazole
dioxoimidazolidine
dioxocyclohexen
tetrahydroanthracen
tetrahydropentalene
trihydroxybutyl
trimethylbutan
trimethylaniline
trimethylundec
ylmethylcarbamothioylamino
dichlorochromen
dichlorobicyclo
butylthiophene
butylpiperazine
butylbenzenesulfonate
octanoyloxypropan
octasilapentacyclo
propylpyrrole
propylsulfinyl
propyloxirane
sulfanylideneethanimidoyl
tetrapotassium
##anthridin
dotriacont
benzenesulfinamide
phthal
phosphapentacyclo
dodecol
dodecazaheptacyclo
tetramethyloxolan
tetramethylpropane
tetramethylpyrano
tetramethylcyclobutyl
decazacyclo
phenoxypyridine
phenoxybutoxy
diphenyltetrazol
diphenylcyclopentane
trimethoxyphenanthrene
acetyloxyimino
octahydroacridin
tridecanoyloxy
dioxathi
oxopentoxy
iodobenzenesulfonamide
050
dodecahydrophenanthrene
oxidoquinazolin
decahydro4
trichlorothiophen
methylsulfonylbutanoate
pentylchromen
pentylquinazolin
##anoyloxymethyl
tetrahydroxyhexanedioic
ethylsulfanylspiro
enoxypropyl
enoxyoxan
methylbutanoylcarbamothioylamino
benzamidomethyl
phosphonooxyethyl
butanoylcarbamothioylamino
sulfocyclohexa
sulfomethylamino
adamantylideneamino
heptanylmethyl
sulfooxyhex
oxycarbonylhydrazinylidene
ylmethylsulfanylmethyl
hexadecanoyloxymethyl
diethoxyphosphorylprop
undecafluoropentyl
propylchromeno
isothiochromene
dimethylpentanoic
diynal
50e
##nonadecan
heptazacyclohenicos
pentachlorodibenzofuran
ylcyclobutyl
oxathiole
oxononanoate
##asilaborole
azacyclooctacosa
##docosanoic
tetraethylazanium
butylsulfonylamino
diphenylphosphanylmethyl
65s
diphenylbutanenitrile
##cyclopropen
tritetracont
diazanidacyclo
cyclooctene
dotetracontane
phenoxathiine
oxopentadecyl
methylnonadecanoate
1br
##hentriacontane
ylhexanoate
methylcyanamide
hydroxybenzonitrile
triphosphon
oxopiperazine
oxododecyl
oxothian
oxoethanesulfonic
phenylcyclopenta
methoxyhexanal
methoxyphenazine
aminobenzamide
aminobutanoylamino
dimethyldi
dimethylcarbamimidothioate
dimethylcyclopenten
dimethylsulfonio
ethylbutoxy
ethylpropanedioate
##ecin
methylidenebut
methylideneoctan
sulfanylimidazole
sulfanylcyclohexan
dioxosilane
dihydroxymethyl
bromopyrimidin
nitroamino
nitrotetrazol
nitroquinoxalin
nitroacridine
dicalcium
dioxofuro
dioxopentanoate
dioxomolybdenum
##asiline
trimethylpyrimidine
trimethylhexan
trimethylhepta
trimethylbenzenesulfonate
ethoxyphosphinic
butylfuran
enylsulfamoyl
enylcyclopentane
propyloxan
propylcarbamimidothioic
propylazetidine
ylidenehydroxylamine
tetrafluoride
benzodioxino
sulfonylpyrrol
sulfonylindol
hexahydropyridazino
phospholane
dodecazatricyclo
229
phenoxyprop
phenoxycarbonylphenyl
diphenylcyclopropanecarbonyl
iminochromen
iminobenzo
iminopyridin
propanoyloxymethyl
##arboxylate
##octatetraconta
phenylmethoxyoxane
trioxonaphtho
cyclopropylbenzamide
cyclopropylsulfonyl
pentamethylquinolin
methylheptadeca
oxidobenzamide
dibromoanilino
dibromothiophene
pentylcarbamoyl
benzenesulfonylhydrazinylidene
trimethylsilylsulfanyl
trimethylsilylpropan
trimethylsilylethenyl
tetrahydroxyhexanoic
phosphoryloxymethyl
hexylcarbamoyl
hexylpyrrolidine
heptamethylspiro
329
methylbenzenediazonium
##thiocyanate
octakis
propylsulfanylmethyl
methylhexoxy
carbamimidoylanilino
dihydroxypropylamino
cyclohexylmethylsulfanyl
difluoromethylsulfonyl
pentanedinitrile
methylcyclohexanamine
methylsulfinylmethane
diazoniocarbamoyl
pentoxybenzoyl
50r
chloropyrido
diphenylphosphoryloxy
pentazaheptacyclo
hexacosanoic
selenol
selenophen
yloxycarbonylanilino
dihydrothiopyran
octazacyclopentacos
benzoselenazole
benzoselenophene
thulium
nonafluorobutane
trichloropropan
methyltridecanoyloxy
diphosphatricyclo
##thiadiazolo
oxotetradecan
arsonophenyl
hexahydroindolizino
stibonic
dichloropyridazin
tellanylidene
dioxonon
methylsiletane
tetrafluoropyridin
diisothiocyanato
9λ5
bi
pro
##ephthal
##lut
##rhenium
ylphthalazin
ylazanidyl
methylcyclobutane
methylpyridazine
methyloxamide
oxaldehyd
oxaphosphole
##roph
hydroxyethanolate
tribromide
phenyldeca
phenyldecyl
phenylphosphanium
phenyldithiol
methoxyhex
methoxyisoquinolin
aminoacridin
dimethylphosphanyl
10λ5
chloroethene
ethylhept
ethylhexane
oxyindole
oxyicos
137
methylidenehexadeca
sulfanylimidazo
##phenalene
##thietan
dihydroxyaniline
dihydroxyhexyl
bromoacetamide
nitroinden
nitroethene
dioxochromium
trihydroxyheptadecyl
dimethoxybicyclo
dimethoxypyridine
trimethylnona
ylmethylsulfonyl
acetylspiro
acetylhydrazinylidene
dichloroquinazolin
dichloroimidazo
butylpyrrol
indigane
enylquinolin
propylbenzoic
ylidenecyclohexyl
thiadiazino
cyanobenzamide
acetamidopyridin
methylsulfanylethenyl
methylsulfanylimidazo
diethylphosphoryl
sulfonylbenzoyl
cyclohexylsulfonyl
##pyrazolidine
nonanediamide
carboxyamino
carboxypyrrolidin
iodoquinazolin
dodecahydrophenanthren
dodecahydrochrysene
cyclopropylcarbamoyl
pentamethylcyclopenta
undecazabicyclo
hexaenamide
pentylacetamide
methoxyethylcarbamoyl
phosphorylsulfanyl
heptaenylideneamino
ylsulfonylthiophen
enoxybenzoate
butoxynaphthalen
phenylsulfanylprop
methylpropanethioate
benzylsulfanylacetyl
trimethylsilyloxyethoxy
trimethylsilyloxybenzoate
sulfobenzoyl
triphenylethyl
chloromethylsulfanyl
##tetradecanoic
iodothi
dibutylcarbamodithioate
octaoxa
413
phenyliminoprop
hydroxyiminopropanoyl
##borinin
isothiocyanate
methoxybenzenesulfonyl
##nonadecyl
triazacyclotetradec
trinitroaniline
tributylphosphane
oxathiazol
pentafluoropropane
oxononan
##asilinane
hentriacont
hydroxydecanoylamino
ethenediazonium
##carbothioyldisulfanyl
oxazaphosphinine
hydroxyhexadecanoate
cycloheptene
boranuidabicyclo
tellane
hydroxydocosanamide
oxatriazine
cyanate
nonafluorobutylsulfonyl
trioxothioxanthene
##lutonium
chrom
hyl
se
ylindene
methylisoindol
methylcarbamothioate
methylthian
##phenylen
##olidin
hydroxypyrimidin
hydroxyisoindol
hydroxycyclopentane
hydroxyethanesulfonic
##onit
##onooxycyclohexyl
oxoethanimidothioic
phenylpurin
phenylhexanoic
phenylcyclobutane
phenylphenalen
ethanethione
methoxybenzimidazole
methoxymethanimine
aminopentanedioic
dimethylthian
chloromethoxy
ethylpropan
ethylcyclopropane
##cyclododeca
oxynaphthalene
##erylene
methylidenehexyl
methylidenedodeca
methylidenehydrazine
dihydrothi
sulfanylethanimidamide
sulfanylidyne
##rolidine
##pentaleno
dihydroxyxanthen
bromochromen
dioxoheptan
dioxopyrimido
tetrahydrobenzimidazol
tetrahydroquinoxaline
trihydroxycyclohex
trihydroxybenzene
trimethylphenol
trimethylhexane
ethoxymethoxy
##fluoroborate
dichlorotin
enyloxamide
sulfophenoxy
benzylazaniumyl
propylpyrrol
cyanopropoxy
carbonyldiazenyl
212
cyclohexylsulfamic
##heptanedioic
##heptanedioate
tetramethylhept
decazadecacyclo
nonatetraconta
nonazatricyclo
041
phenoxyquinolin
diphenylpyrazolidin
diphenyltriazole
iminopentan
carboxycyclohex
phenylmethoxypropanoate
dioxaundecacyclo
diaminohexanoate
carbamothioylhydrazinyl
##tritriacont
yloxyoxan
yloxybenzaldehyde
dodecahydrophenanthro
pentaethyl
oxidobenzenesulfonate
trichlorobenzoate
dibromoplatinum
diethoxyphosphanyl
ynylpropan
ethylsulfanylbenzimidazol
dinitrobenzo
##acosanoate
pentadecanamide
pentadecazanonacyclo
trimethylsilyloxysilane
##dithiole
octamethylspiro
tetracosyl
tetracosanoyloxypropyl
phosphonoamino
diazepino
sulfonatoamino
ethoxyethylsulfanyl
tetraoxadispiro
##iodanium
isothiocyanat
##atetradecacyclo
trichloropyridin
trichlorophenol
undecylamino
diiodobenzoic
sulfinylphenyl
bromine
##pentanehydrazide
hydroxychromenylium
54s
phenacylsulfanylspiro
hydroxytetradecanoyloxy
57s
hexadecoxypropoxy
pentadecylbenzene
oxononanoyl
methyltetradecyl
methylsulfonyloxybutyl
hydroxydecanoic
methylnonane
decoxyethoxy
methanediol
methylundecane
dioxaborinine
methylpentadecanoate
ylpropanehydrazide
oxodecanoic
##isothiochromene
tridecafluorooctyl
chlorobenzotriazol
arsorosophenyl
trioxatrisilinane
octaethylporphyrin
tetrahydroisothiochromene
dodecafluoroheptyl
dibromonaphthalen
diazocan
tridecafluorohexylsulfonyl
oxooxonan
##cubane
pol
yloctan
methylchromene
methylphenanthrene
methyldibenzofuran
oxazepin
hydroxytridec
hydroxyphosphonoyl
##onate
oxohexoxy
ethanimidothioate
methoxyoxolane
aminobenzo
aminobutanoyl
aminocarbamate
dimethylhexanoyl
chlorohexyl
chlorocarbazol
thioate
##romethane
oxyicosa
methylidenebutyl
methylidenebutanoic
sulfanylquinolin
sulfanylnaphthalene
sulfanylidenetetr
##azinine
bromopentyl
bromocarbazol
nitroindole
dioxohexanamide
pentaphosph
azid
##ophenolate
##sulfin
dichloroanthracene
dichlorodibenzofuran
butylpyrrolidin
butyldiazenyl
enylcyclohexyl
octatriacontan
propyltriazol
propylimidazolidine
propylazaniumyl
oxathia
diazete
acetamidoacetate
##sulfonothioyl
methylsulfanylpent
methylsulfanylquinoline
sulfonylimidazol
sulfonylthiophen
benzenecarbon
tetramethylicosa
tetramethylcyclopropyl
tetramethylguanidine
phenylethylimino
phenoxyacetohydrazide
diphenylpyrido
iminocarbamate
##dotriacontane
acetyloxybutanoate
acetyloxyethoxymethyl
benzoylbenzoyl
tetradecahydronaphtho
yloxyacetohydrazide
cyclopropylquinoline
ynenitrile
phosphorylpyridin
heptaenoic
hexaacetyloxy
ylsulfonylimino
formylbenzoate
dithiepan
propoxyquinolin
phenylsulfanylindol
dichlorophen
methoxymethylazanium
methylbenzenecarboximidothioic
dicarbonyl
dicarboxypropyl
heptaoxanonacyclo
iodophenol
dibutylazanium
dipropylcarbamoyl
octaoxaoctacyclo
nonaoxanonacyclo
enylsulfanylbenzene
tetrachlororuthenium
phenylpentoxy
methylbenzimidazolo
cycloheptylpiperazin
tetrafluoroethylsulfanyl
triethylphenyl
diethoxyphosphorylethenyl
dicyanophenyl
hydroperoxydocosa
##ropyrimido
tribromodibenzofuran
tetrazaoctacyclo
dimethylpentanoyl
##ocan
chloropyrrole
hydroxytetradecyl
tetradecylamino
tetradecylazanium
59r
dibenzoyloxyoxolan
methyldecanoylamino
##anedithioic
chlorobenzenecarbothioate
oxopyrazolidine
methyldodecanoate
dioxaborinino
aminopentylamino
phenylethanesulfonamide
carbamimidoylsulfanylethyl
arsonous
boranuidatricyclo
11cs
trithiabicyclo
dodecaoxaheptacyclo
dibenzamido
trioxacyclododec
##osulfonyl
polonium
sulfanylidenetetrazol
benzenecarbonothioyl
3λ4
7λ5
hypo
stann
##palladium
ylnon
ylhexane
ylidenetricyclo
methyloxetan
methyloxepan
methylsulfonimidoyl
hydroxyhenicos
##atridec
triiodide
triazepino
benzaz
phenylhexanoyl
aminopent
aminothiophen
aminobutanoate
dimethyltetracen
chlorobenzonitrile
acetamid
ethylimidazole
ethylheptan
ethylazaniumyl
tetratriacontane
oxyphenol
oxyoctadecanoate
methylidenepentacyclo
methylidenepiperazine
dihydroquinolino
##pyren
dihydroxybenzo
dihydroxytridecyl
dihydroxyheptadec
dihydroxyheptanoate
fluoroethoxy
dioxopropyl
tetrahydroxide
tetrahydroisochromeno
tetrahydroindazole
trihydroxyhexanal
pentatetraconta
trimethylpyrrolo
ethoxybenzoic
acetylfuran
butylbenzo
butylpyrrolidine
butylaniline
benzylcarbamimidoyl
heptanedioic
sulfanylidenepyridine
sulfanylidenepyrrolidin
tetrahexyl
tetrapentyl
3ae
cyclohexylcarbamimidothioic
hexahydropyrrolizine
##heptaconta
tetramethylquinoline
phenoxyoxan
diphenylethoxy
diphenylazetidin
diphenylpyridazine
iminocarbamoyl
iminopropanamide
iminomethanedithiol
hydrofluoride
carboxycyclohexanecarbonyl
ethenylimidazol
phenylmethoxybutanoate
trioxide
trioxane
iodopyridine
##butanal
oxidomorpholin
##onio
pentaenamide
ylsulfanylpropyl
ylsulfanylquinazolin
methylsulfonylphenoxy
pentylcyclohexane
tetrahydroxyxanthen
tetrahydroxyhexanoate
diethoxybenzoyl
phenylpropanal
dinitropyr
32z
33z
trioxopyrrolidine
trioxopentanoate
dinitrofluoren
benzylsulfanylphenyl
benzylsulfanylpropanoate
heptadecoxy
dicarbothioate
sulfopropanoic
heptylbenzimidazol
##dodecanamide
pentazahexacyclo
hexahydrocyclonona
methylbenzotriazole
quinolino
phenylmethanimidothioic
dimethylchromenylium
tetrafluoroethane
triethylgermane
hydroperoxymethyl
##ylideneoxolan
hydroxypentanedioate
cyclobutylmethanone
henicosanoyloxy
azanidylpropan
carboxylatomethylsulfanyl
methoxybenzenecarbothioate
sulfinylethyl
sulfinylacetamide
pentazacyclopentadec
propanoyloxypropyl
carbamoyloxypropyl
tetraacetyloxyoxan
tetraenylidene
triazacyclododec
triazacyclopentadec
chloropyrazin
56s
chloranium
phenacylsulfanylpyridine
sulfosulfanylmethyl
trifluoroethylidene
chloropiper
pentadecylphenoxy
pentafluoropropyl
diphenylpropylidene
##anuide
tetramethylhexadecyl
hexacosyl
octadecanoyloxyethyl
propylsulfonylpiperidin
tetrachloroprop
ethenoxyethene
##cyclopropene
oxophenoxazin
dimethyltetradecanoylamino
dibenzothiophene
methylsiletan
azanidylsulfonylphenyl
##mercuriomethyl
sulfonatosulfanyl
chromio
6λ6
plutonium
ylcarbamimidothioate
dioctoxy
ditetra
methylcyclohepta
methylphosphane
methylphenazine
methylhenicosanoate
##oxonine
hydroxythiolan
hydroxyfluorene
hydroxysulfonothioyl
trisil
oxohydrazinyl
oxoindene
phenyleth
phenyltetrazolo
phenyltriazolo
phenylnitrous
methoxydodec
aminobutanoic
dimethyltriazol
dimethylanthracen
chloroindole
chlorobutane
chloroethynyl
chloromethane
thiacyclo
oxypentacyclo
oxyfuro
oxymethane
13c
dihydrocyclobuta
sulfanylthiophen
dihydroxyprop
##dithiolan
fluoroquinolin
##hexacosane
bromopropanoylamino
nitrobutan
dioxochromen
tetrahydroazulen
pentahydro
pentanedihydrazide
dimethoxycyclohexyl
dimethoxyoxane
azanyl
trimethylheptane
trimethyldecane
trimethylcyclopentanecarbonyl
ethoxyoxolan
dichlorothiophene
dichlorozirconium
butylhydrazinylidene
enylfuran
enylcarbamimidothioate
18a
propylcyclopropane
propylpyrimido
propylpyridazino
diazaphosphole
##anthridine
methylsulfanylcarbonyl
methylsulfanylpiperazine
methylsulfanylbenzimidazole
diethylpiperazine
sulfonylpyrazol
sulfonylquinoline
sulfonylacetohydrazide
cyclohexyltriazol
hexahydroazepino
tetramethylcyclopentyl
diphenylhexane
iminothiophene
iminopentyl
carbamoylphenoxy
carbamoylcarbamoyl
trimethoxyphenanthren
propanoylanilino
acetyloxybut
trienethioate
ylethylcarbamoylamino
##tetracontane
##anediimidamide
oxopropanal
trioxepine
diaminotriazolo
cyclopentylpropyl
decahydroquinoline
trichlorosilyl
ylsulfanylacetic
methylsulfonylethenyl
pentylbenzamide
pentylcyclopropane
tetrahydroxypentan
chloroethylidene
silolane
hexylacetamide
dithiapentacyclo
ethylsulfanylpyridine
enoxyoxane
methoxycarbonylhydrazinylidene
dinitronaphthalene
34z
##acosyl
diazadiphosph
methylbenzenecarbothioate
phosphonooxybutanoyl
phosphonooxybutanoic
butanoylpiperazin
nitrosoaniline
pentahydroxyhexoxy
dibenzylazanium
benzhydrylpiperidin
benzhydrylcarbamoyl
benzoxadi
octylsulfonyl
butylaminomethyl
methylchromenylium
thiadiazepane
dithiadi
nitropyrido
phosphonoformic
propylsulfanylquinazolin
decylidene
sulfonatobenzoate
dicyanomethyl
phosphanylmethyl
hydroxypropanedioate
benzenecarboximidothioate
dimethylpropylamino
undecylcyclohexa
azanidylidene
##boro
methyloctane
methoxybenzenediazonium
hexaenylmethoxy
trimethylcyclohexylidene
benzylsulfonylphenyl
hexafluoropropane
chloropyrrolidin
3bh
ynoxyoxane
dimethoxyphosphorylmethyl
fluoranylpropyl
pentafluoropropanamide
##asilatricyclo
oxopropanoylamino
azacyclotetradecan
propylsulfonylpiperazin
dihydroisoindolo
nitrobenzotriazol
borono
diphenoxyphosphorylamino
sulfonatooxyoxane
tetrafluoropropoxymethyl
tripropylsilane
70s
acetylsulfanylethyl
fluoropropane
hydroxydodecanoate
oxocycloundeca
oxohexadecanoyl
dimethylpropanoyloxymethoxy
dicarboxybutanoyloxy
nitrososulfanyl
hydroxyheptanoyl
dihydroxyoctadecyl
##anoylsulfanylethylamino
trisulfide
oxypentylamino
nitropentan
oxynonanoic
dihydrooxazin
dihydrooxazine
diazaphosphinane
benzodioxaphosphepin
triazatriborinane
##perimidine
chlorophthalazin
oxaldehydoyl
##atridecacyclo
ditetrafluoroborate
nept
##pthal
##gold
ylpyrazolidin
ylazulen
yloctanamide
dipentoxy
methylazetidine
methylcarbazole
hydroxysulfanyl
hydroxydecyl
hydroxyadamantane
hydroxytricos
##ethoxycarbonyl
tricarbon
trithiolane
tritriacont
oxotetracos
phenylstannane
methoxyurea
methoxyimidazo
methoxyethanamine
methoxypentyl
aminopentanoyl
dimethyltetradeca
chlorobenzimidazol
chloroanthracene
chlorobenzenesulfonic
thiete
##cyclododecane
enimidate
127
oxyanilino
oxyethenyl
oxydodeca
methylidenecycloundeca
dihydrotriazol
dihydrocyclohepta
dihydroacridine
dihydropentalene
16a
sulfanylbutanedioate
dihydroxyindol
dihydroxypropanamide
fluoronaphthalene
hexatriacont
hexatetracontan
bromotricyclo
bromobenzohydrazide
bromoethylamino
dioxoindolo
tetrahydroisochromene
dimethoxypropan
trimethylocta
trimethylpyrrole
ethoxypropanoate
dichloroquinoxaline
dichloroethene
enylcyclopentyl
octanylidene
benzylazanium
propylcarbonimidoyl
acetamidobutyl
acetamidoethenyl
##sulfonimidic
methylsulfanylindol
sulfonylpyridin
cyclohexylpyrrolidin
hexahydroquinoxalin
phosphinine
dodecanoyloxypropan
##heptacontane
tetramethylbenzenesulfonamide
tetramethylhexane
220
##sulfonylphenyl
phenylpropanedioate
diphenylbutanoic
diphenylphenazin
benzothiazolo
propanoylbenzohydrazide
carboxyoxy
methylpentanedioic
octahydroporphyrin
octahydrocorrin
dioxadi
oxopentadeca
carbamothioylimino
cyclopentylurea
cyclopentylsulfamoyl
yloxybut
tetraenedioic
cyclopropyltriazol
oxidoethyl
oxidopyrazol
ylsulfanylpyridine
dibromothiophen
pentylsulfonyl
pentylpiperidine
hexyliminomethyl
formylpyrrolidin
propoxypropyl
phenylsulfanylpyrimidin
heptanedinitrile
ethoxycarbonyloxyethyl
nonadecanoyloxy
benzamidoprop
benzamidocarbamoyl
dicarbamoyl
trimethylsilyloxyprop
trimethylsilyloxypentanoate
azaniumylpropanoate
sulfooxypropan
dibutylphosphoryl
oxyethylsulfanyl
aminoethyldisulfanyl
oxacyclodotriaconta
phosphonophenyl
nonylamino
dimethylidenespiro
ylcarbamoyloxy
##lumb
methylsulfinylethenyl
methylpentanenitrile
dicyclohexylphosphanyl
hydroxypentanedioic
ylbuta
carbamoyloxyethyl
pentoxypropan
##borole
53r
disulfido
##benzenecarboximidothioate
dimethoxyphosphoryloxybut
octoxyoxolan
oxaza
hexachlorotetracyclo
##unium
##uteri
60s
methylcyclopentene
dimethylsilyloxy
pentacosanamide
##biphenylene
tetrafluoropropane
thiocyanatophenyl
adamantylmethylamino
tritylsulfanylpropanoic
##oxecane
##phosphonoyloxymethyl
sulfaniumyl
tritetracontan
dicarboxybutanoyl
diphenylpentanenitrile
pentabromodibenzofuran
ylethanimidothioic
hydroxyheptadecyl
stibanyl
##sulfonylmethylbenzene
hentetracontahydrate
sulfonylazanidylphenyl
dodecamethyloctatetraconta
pentacyanide
##cyclooctene
sulfurous
methanona
pentadecafluoroheptylsulfonyl
phthalate
neptunium
tricarbonate
methanonapthal
5λ6
##idi
ylnona
ylformamide
dihydrazinyl
ditridecyl
dimagnesium
methylicos
methylpteridin
methylazanidyl
methylsilolane
methylthiomorpholine
hydroxyquinazolin
actinium
oxoazepane
oxooctadecanoic
phenylacridin
phenylheptane
methoxythiophene
methoxyhexadec
propanimidothioic
dimethylbutanedioate
dimethyldecane
thiaz
ethylmorpholin
ethylmercury
ethylnonan
oxypentanedioic
13λ5
dihydroxypyridin
dihydroxyoctadecanoic
fluoroacridin
hexaconta
hexanethioate
bromooctadeca
dioxoquinazolin
dioxoindole
trihydroxydocosa
trimethylpyrazole
trimethylcyclopenten
trimethylplumbane
ethoxyethane
acetylnaphthalen
dichlorospiro
butylpropanamide
butylcyclohexa
butylazaniumyl
enylaniline
enylbutanamide
sulfide
trifluorobenzene
trifluoroborane
trifluoroethenoxy
19a
cyanoquinolin
acetamidoethylsulfanyl
benzodioxaphosphole
methylsulfanylquinazoline
diethylcarbamoylamino
sulfonylpropyl
20a
cyclohexylbenzimidazole
dodecachloro
tetramethyloct
049
043
phenoxypropanoylamino
diphenylquinoline
diphenylhepta
diphenylbutanoate
diphenylacetic
##carbonylbenzoic
carboxyethenoxy
acetyloxybutyl
phenylmethoxyquinolin
carbamothioylsulfanyl
hydrazinylpyridazin
yloxybenzoic
cyclopropylfuran
cyclopropylpropanoyl
dicarboxylato
triazonan
oxidopyrazolo
decahydropicene
dibromobicyclo
dibromobenzene
dibromomethylidene
methylsulfonylbutanamide
methylsulfonylazanide
pentylbenzoate
pentylpyridine
trimethylsilylethoxy
trimethylsilylpropyl
tetrahydroxyanthracene
hydroxypropyliminomethyl
siletane
heptaenoyl
icosaene
hexaoxanonacyclo
ylsulfonylbenzohydrazide
formylthiophen
propoxyphenoxy
enoxypropane
phenylsulfanylbut
methoxycarbonylfuran
heptadecanamide
##acosanamide
ethoxycarbonylsulfanyl
methylbenzenecarboximidamide
henicosafluoro
pentanoylphenyl
##nonacyclo
sulfoazetidin
triphenylene
triphenylgermane
##thiocane
octylcyclopropane
octylcyclopropyl
##tetradecanoylamino
heptaenedioate
carboxylatopropyl
enylsulfanylquinazolin
enylsulfanylpyridine
tetrachloroethyl
tetrachloronaphthalene
oxycarbonylbenzoic
dodecylpyridin
diazoniaheptacyclo
diethoxyphosphorylsulfanylmethyl
sulfonatobutanoate
trichloromethyldisulfanyl
##aphosphinan
##borinic
trienoyloxy
trichloroplatinum
ethylhexylamino
methanesulfonamidomethyl
azanidylmethyl
##borolo
tetrazacyclooctadecane
pentazacycloicos
pentoxyethyl
diphenylethylcarbamoylamino
58r
phenoxypropylsulfanyl
butanoyloxymethyl
sulfonyloxybenzoate
cyclohexyloxyphosphoryl
diazacyclododecane
sulfidomethane
hexazacyclohexatriacontane
methyldodecan
##carbothioylamino
tetrazinane
hexaoxahexacyclo
benzoselenadiazole
tetrachlorophenoxy
cyclododecylideneamino
##ropiperidine
tritylsulfanylpropanoate
ethanedihydrazide
cyclooctanamine
didecylamino
oxododecanoic
diphosphonato
hydroxytetracosanoylamino
tetrahydroindolizin
tetrahydroindolizine
ethylhexanoyloxy
trithiatricyclo
12cs
dioxadithiepan
icosoxypropan
##phenoxathiin
benziodoxol
sulfanylidenethieno
##rophthalic
met
quinazolino
##nickel
##tantalum
##ethylbenzene
##indigane
ylisoquinoline
ylhexa
ylaziridine
ylphosphinic
diphen
disulfonyl
methylpyrazolidin
methyloctadeca
methylsilinane
##lone
hydroxynitrous
hydroxytridecan
oxoanthracene
oxophosphanium
phenylfluoren
phenylindazol
methoxyquinazoline
methoxyfluoren
methoxypentanoyl
methoxythioxanthen
propanimidate
aminohexanoate
dimethylphosphinothioyl
dimethyloxepan
chlorofluoren
chlorododecyl
thietane
##cyclooctan
oxypentanoyl
oxybutanoylamino
134
dihydroquinazolino
sulfanylthiophene
sulfanylmethanimidothioic
sulfanylbutylidene
##thiirane
dihydroxypropanoic
bromoisoquinolin
dioxooxan
dioxohexanoate
tetrahydropyrrolizin
tetrahydrocyclobuta
trihydroxycyclohexene
pentacont
dimethoxynaphtho
azirin
trimethylcycloundeca
acetylpiperidin
dichloroarsanyl
enylbenzenesulfonamide
enylcarbamothioyl
enylcyclopentan
octanedioate
propylpyrazine
##carbodithioate
ylideneacetate
diazido
diazetidine
cyanopropanoate
acetamidopentyl
methylsulfanylpropane
dotriacontan
sulfonylethanol
cyclohexylpyridine
tetramethyltetradeca
decacyclo
benzoxocin
benzoxecine
phenoxypyrimidine
phenoxyphenol
diphenylthiophene
diphenylhexyl
diphenylcyclohexan
diphenylethanimidamide
iminocarbamothioyl
propanoylhydrazinylidene
ethenylphenoxy
ethenylpyridin
octahydroisoquinolino
methylpropanediamide
phenylmethoxypentan
phenylmethoxybutanoic
tridecazatetracyclo
diethylaminodiazenyl
iodoethenyl
iodoethane
diaminohexoxy
cyclopentylthiourea
##triphenylene
yloxyethylsulfanyl
cyclopropylethenyl
oxidopyrrolidin
undecanoylamino
ylsulfanylbutanamide
pentylcyclopentane
trimethylsilylindole
phosphorylmethanol
methylbutylcarbamoyl
formylpiperazin
dithiazinane
propoxynaphthalen
methanehydrazonoyl
enoxyphenoxy
phenylsulfanylpropanoyl
diacetyloxypropyl
dicarboxyethyl
trimethylsilyloxypent
trimethylsilyloxypyrimidin
trimethylsilyloxybutanoate
azaniumylbutyl
azaniumylhexanoate
phosphonooxyhexanoic
methoxypropylcarbamoyl
nitrosopyrrolidine
38z
pentahydroxypentyl
sulfobenzenediazonium
triphenylcyclopenta
triphenylsilane
heptylideneamino
##quinoxalino
octylpyridin
octylsulfanylmethyl
iodine
sulfooxychromen
phenylbutanedioate
##icosyl
oxacyclooctadec
tetrachloroiron
phenylbutylidene
phenylmethanethione
trin
phenoxyethylamino
carboxybutanoylamino
phosphanylidyne
formamidopropanoyl
pentaoxatetracyclo
ylidenemethylimino
sulfinylacetic
oxopentylsulfanyl
oxonin
triazacyclotetradecane
triiodobenzene
isocyanatocyclohexyl
hydroxyoctadecanamide
hydroxytetradecanoic
57r
octahydrocycloocta
diynylthiophen
dihydropyrrolizin
methylhexadecanoic
64s
methylsulfonyloxyoxan
isocyanomethyl
sulfidopropanoate
selenite
dimethylphenolate
bromopropylidene
hydroxyhexadecyl
##achloropentacyclo
thiocyanatoacetate
67s
oxyethoxymethyl
heptadecafluorooctane
boranuidacyclo
hexahydroindolizine
diazoniaundecacyclo
benzodiazaphosphol
tetrazanidacyclo
nitrophenanthrene
heptaoxaheptacyclo
##idynet
prot
9λ4
hypochlorite
perylene
##yt
##silo
ylanthracene
methylindene
methylindazole
methylphenothiazine
methylsulfamic
hydroxybenzenesulfonamide
hydroxycyclopropyl
hydroxynona
trilithium
oxoethanesulfonate
phenyldisulfanyl
phenylthiolane
ethanedithioate
dimethylhexanoate
dimethylstannane
dimethylformamide
dimethylundecan
chloroindolo
chlorotriazolo
chloroadamantane
thiirane
ethylcyclohexane
##propanimidothioate
##anyloxy
tetracontane
oxybutanedioate
133
methylidenehexanoic
##anehydrazide
dihydrooxireno
sulfanylanilino
sulfanylbutanoyl
dihydroxyheptyl
fluoroisoindole
##hexacontane
bromoquinoline
bromoimidazo
nitrocyclohex
nitroisoquinolin
nitrobutanoate
nitrocyclohexan
dioxoquinoline
dioxopyrazolo
tetrahydrooxecin
tetrahydrooxireno
trihydroxyicosan
dimethoxyquinoline
dimethoxydibenzofuran
trimethylnaphthalene
##orus
dichlorotricyclo
dichlorotitanium
enylnaphthalene
octatriacont
benzylbenzamide
benzylpyridine
propylpyran
propyloxiran
propylnitrous
##carbothioic
ylidenehydrazine
sulfanylidenepropan
diazaphosph
diazaphosphinin
carbonylsulfanyl
tetrabromide
acetamidobenzoic
benzodioxaphosphinine
methylsulfanylquinolin
diethylbutan
diethylhexane
diethylcarbamimidoyl
sulfonylnaphthalene
sulfonylbutanamide
21a
21h
cyclohexylpyrrole
hexahydroquinolin
hexahydroacridin
hexahydroquinoxaline
phosphetan
phosphorus
tetramethylethane
tetramethylcyclobutan
22a
phenoxybutanoate
diphenylpentanoate
iminopyrimido
trimethoxydibenzofuran
carboxybutan
carboxyphenolate
##phosphole
methylpropylcarbamoylamino
anilinoethylidene
##tetracosan
##anedioyl
cyclopentylpyridine
hydrazinylphenyl
yloxypyrrolidine
yloxynaphthalene
hexadecoxyphenyl
sulfonohydrazide
##butyldisulfanyl
12ah
undecazatetracyclo
dibromobut
dibromopropan
dibromotricyclo
dibromocyclopropyl
methylsulfonylbenzamide
methylsulfonyloxyphenyl
methylsulfonylpyridin
methylsulfonylpyrimidine
pentyloxolane
dienylideneamino
hexylbenzene
hexylbenzimidazol
formylanilino
trioxobenzo
trioxoanthracen
phenylsulfanylpyrrolidine
methoxycarbonyloxan
methoxycarbonylpyrrolidin
dinitronaphthalen
dinitrofluoranthene
benzylsulfanylpurin
benzylsulfanylpyridine
benzylsulfanylpropanoic
dicarboxyphenyl
trimethylsilyloxypurin
phosphonooxydeca
phosphonooxypropanoic
nitrosopiperidine
triphenylcyclobutyl
octylphenoxy
octylbenzene
octylpyrrolo
sulfooxypropanimidothioate
phenylbutanedioic
trioxadi
phenacylpyridin
octamethyldotriacont
tetrachlorocyclopenta
tetrachlorostannane
trienylbenzene
44e
propylsulfanylpyridine
phenylmethanimidamide
triethylsilane
nitropyrazolo
dimethyloctoxy
triazadiborol
trifluoropropane
cyclobutylacetamide
dimethylpenta
514
benzylsulfonylpiperazin
tetradecylsulfanyl
tetradecyloctadec
trinitroanilino
##sulfanylmethylbenzene
dichloroethenylsulfanyl
decaenoxy
ylcycloprop
oxathiol
octoxyoxan
octoxyaniline
oxaziridine
azacycloicosa
iodanylbenzoyl
methylnonoxy
oxohexanedioate
selenadiazol
dimethylnonane
phosphonomethylamino
thiocyanatomethyl
hydroxydodecanoic
oxohexadecanoic
pentahydroxyhexylideneamino
oxoniophenyl
dodecaoxadodecacyclo
diazaphospholidine
hydroxyhexacosanoylamino
dimethylazaniumylidenecyclohexa
##ethanediimidamide
dinitropropyl
##phosphinolin
undecafluoropentylsulfonyl
##esium
##beryllium
##etri
##hentriaconta
ylinden
ylcarbamothioate
ylcyclopentene
methylox
methylfluoren
methylcarbamic
methylazocan
oxamoyl
hydroxybicyclo
hydroxyundeca
tributoxy
trifluoropentane
carboperoxoate
oxotrideca
oxooxepan
oxoisothiochromene
phenylheptyl
phenylundeca
phenyloxamide
phenyloxadiazol
phenylthiomorpholine
phenylcyclopentanecarbonyl
methoxythiophen
methoxypropanoic
methoxytetrazolo
aminopropane
aminodiazenyl
aminobutanedioic
aminohexanoylamino
dimethyltridec
chlorocyclohexa
chloroethanamine
chloroquinoxaline
chlorodibenzo
##etride
thiazepan
ethyloxolan
ethylcyclopropyl
ethylcyclopentane
oxyhexacyclo
oxycyclohexa
oxyaniline
oxydodec
methylideneundeca
sulfanylpentan
sulfanylphosphonic
dioxazole
dioxasil
dioxazinane
butanedihydrazide
dihydroxybutanoic
dihydroxyhexadec
dihydroxyisochromen
##ace
bromobutan
bromocyclohexyl
bromofluoren
nitrooxyethyl
dioxohex
dioxohexanoic
tetrahydroisochromen
trihydroxyspiro
dimethoxyisoindole
dimethoxybenzonitrile
trimethylbutanamide
trimethylcyclopentan
phenars
acetylamino
dichlorobutyl
butylbenzoic
enyloxan
enylcyclohexan
enylbenzaldehyde
benzylindole
benzylcyclopentyl
propylanilino
propylpentyl
propylcarbamothioate
ylidenespiro
diethylbut
diethylgermane
sulfonylaziridine
benzenesulfinate
cyclohexylanilino
cyclohexylphenol
hexahydrocarbazol
dodecazahexacyclo
tetramethylpiperazine
tetramethylcyclopropanecarbonyl
diphenylhydrazinylidene
diphenylmorpholine
diphenylpentanamide
iminobut
iminoquinolin
iminonaphthalen
iminoethylidene
carbamoylcarbamate
carbamoyldiazenyl
acetyloxyoct
tetradecoxypropyl
methylpropylsulfonyl
hexadecaoxo
octahydropentalene
hydroxyethylhydrazinylidene
phenylmethoxypropanoyl
phenylmethoxyethanimine
dihydropyrene
diethylaminomethylidene
oxopentanedioic
cyclopentylcyclopentane
yloxyaniline
difluoroacetyl
##silinan
pentylquinolin
tetrahydroxyhexoxy
diethoxyanilino
ethylidenehydrazinylidene
ylsulfonylpropan
ylsulfonylacetonitrile
dinitropyridin
dithietane
propoxyoxan
propoxyimino
ethylsulfanylethane
methanesulfinic
phenylsulfanylethoxy
tetradecafluoro
dinitrooxy
##ynoxy
sulfanylmethylbenzene
heptadecanoyloxypropyl
benzamidopurin
dicarbonate
phenylpropylcarbamoylamino
trimethylsilyloxybut
trimethylsilyloxymethanimine
azaniumylphenoxy
##phenanthrylene
carbono
triphenylpentane
heptylpyridin
dipropylphenyl
octahydrate
carboxylatopropanoyl
nitropyren
benzoxathiine
dodecylsulfanylmethyl
cycloheptylpiperazine
tetramethoxytricyclo
tetramethoxyxanthen
46e
hexadecanoyloxyethyl
diethoxyphosphorylamino
sulfonatobutyl
sulfonatocyclohexa
dimethylheptanoate
dimethylheptadecan
dimethyloctanoic
arsenic
methylsulfinylbutanoic
phenyldiazenylphenol
hexoxycarbonyl
phenylcarbamoylhydrazinylidene
dicyclohexylazanium
dicyclohexylphosphanylethyl
ylbutanedioate
hexadecylsulfonyl
hexadecylcarbamimidothioic
isothiocyanatoethyl
tricosyl
methyloctoxy
##arsanium
carbamimidoselenoic
diphenylpropanenitrile
phenacylsulfanylpyrimidin
trinitrospiro
pentachlorodibenzo
yliminoethanone
octoxypropyl
methylhexadecanoyl
azacyclododecane
hydroxydecanoate
diazacyclooctadecane
diazacyclotetradecane
diazoacetate
selenate
methoxymethoxymethyl
hexazacyclohexacos
phenylmethanesulfonate
dimethylbutanediamide
dihydrothiochromeno
chloropentan
carboxypropylamino
oxadiazinan
ylheptanoate
propylcarbamoyloxy
carboxymethoxyimino
##phenoxaphosphinine
octazacyclotriacontane
methanidylbutane
ethoxychromenylium
phenylcarbamothioylhydrazinylidene
azocin
thyl
octacosyl
oxocyclooctyl
nitrosonaphthalen
diphenylindolizine
oxotetradecyl
triethylsilylmethyl
methylidenetride
tetraphosphatricyclo
methylsilolan
methylethanesulfonamide
benzodioxaphosphepine
hydroxybutanehydrazide
##ethanediimidothioic
propylpentanoylamino
pentathiatricyclo
hexathiatricyclo
disulfonatophenyl
xy
##lane
##eto
ylicosa
yldeca
ylheptyl
yldodeca
yltetradeca
ylheptane
ylmercury
yloxepan
dizinc
methylperoxy
methyltrideca
hydroxypyrrolo
hydroxyacetohydrazide
oxopyrazin
phenylbenzoic
phenylazepan
phenylformamide
methoxypentacyclo
methoxypyrrolidine
methoxyindole
methoxybenzimidazol
methoxyquinoxalin
methoxypyrazine
aminoprop
aminopyrrolidine
aminobenzimidazol
aminopentan
aminooctadec
aminocyclopropyl
dimethylisoquinoline
dimethylquinazoline
dimethylethanimidamide
dimethylmethanediamine
chlorothieno
chlorobutanoyl
chloromethanethioate
chlorocobalt
thiepane
ethylbutanoic
oxyundec
oxyoctane
130
dihydrosilole
dihydroxanthene
sulfanylnaphthalen
##thioic
dihydroxybutanoyl
dihydroxydodec
dihydroxyoctadecanoate
dihydroxyicosan
bromoadamantane
dioxotricyclo
dioxotetracene
tetrahydropurin
tetrahydrophenanthridin
tetrahydrochrysene
tetrahydrocorrin
trihydroxyanthracene
trihydroxybutoxy
dimethoxyhexyl
azonan
azasilaborole
trimethyldec
trimethylchromene
trimethylcyclopropane
trimethyltridec
trimethylhexanoate
trimethyloctane
dichloroethane
enylpyran
octoxymethyl
benzylindazol
propylanthracene
propyltetracyclo
propylcyclohexan
propylthiourea
propylcyclopentane
trifluorobutane
benzothiazaphosphole
ylidenecyclohexane
sulfanylideneethylidene
cyanospiro
cyanobenzenesulfonamide
acetamidohexanoyl
oxoethylamino
dotriacontane
diethylpyridin
sulfonylethylsulfanyl
sulfonylethanimidate
cyclohexylbutan
cyclohexylhexanoate
cyclohexylethylamino
phospho
##heptoxy
tetramethylpyrrol
tetramethylcyclohexyl
tetramethylcyclohexen
222
nonanedioic
diphenylanthracene
diphenylcyclopentan
diphenylpteridine
diphenylcarbamoyloxy
diphenylethanethioate
iminoanthracene
iminoguanidine
233
carbamoylpropanamide
propanoylazetidin
acetyloxycyclohexyl
ethenylbicyclo
phenylmethoxypyrimidine
phenylmethoxypentanoic
##tetratriacontan
dioxathiane
dicarboximidothioic
oxopentanoyloxy
diaminopyridin
diaminophosphoryl
diaminopyrimidine
cyclopentylimino
cyclopentylpiperidine
##methanethioamide
yloxybutanoic
yloxypentyl
##iumylidene
sulfoniumylidene
trichloroacetic
ylsulfanylphosphoryl
ylsulfanylacetohydrazide
methylsulfonylpyrimidin
methylsulfonylthiophene
pentylcyclopent
pentylpyrrolidine
pentylimidazolidin
benzenesulfonylsulfanyl
trimethylsilylpent
tetrahydroxyhexanedioate
phosphorylethyl
oxobutanethioate
hexylpyridin
propoxyaniline
ethylsulfanylethylsulfanyl
enoxyamino
enoxypropoxy
phenylsulfanylbuta
dinitrobenzenesulfonic
diacetyloxyoxolan
nonadecanamide
##thallane
methylbutanal
benzylidenecyclopentylidene
phenylchromenylium
heptanethioate
oxypropylamino
dibenzylcarbamoyl
triphenylprop
sulfooxyheptan
aminoethylideneamino
carboxylatoprop
carboxylatoanilino
phenacylthieno
phenacylpurine
phosphonoacetic
oxycarbonylphenyl
dienoyloxypropyl
tetramethoxycyclobutane
tetrafluorobenzoic
cyclohexylmethylideneamino
cyanomethylamino
hexafluorobut
arsinate
tetraoxopyrrolo
phenyldiazenylnaphthalen
hexoxyethyl
octadecylcyclopropyl
pentaoxadecacyclo
hydroxybutanenitrile
tetrazacycloheptadec
methoxybenzenecarboximidothioic
heptafluorobut
pentoxyanilino
##methanesulfonate
chloropyrrolo
dimethylcarbamoylsulfanyl
##pentadecanoic
sulfosulfanylpropane
sulfosulfanylpropylamino
ynoxybenzamide
ynoxybenzene
octahydrocyclobuta
dimethylbenzotriazol
ylcyclobutan
tetraphenylethyl
##cyclopentanecarboxamide
cyclohexylidenemethyl
hexachlorotricyclo
azacyclohexacosa
chlorophenothiazine
diethoxyphosphinothioyloxyphenyl
methylpentadecyl
##boranylboranyl
tetrachloropyridin
oxybutanenitrile
##tricosane
azaniumylidenemethyl
##cyclobutanecarbonyl
oxohexadecanoate
nitrosonaphthalene
pentabromophenyl
tetrathiacyclo
diisocyanatohexane
ylethanedihydrazide
##asulfooxy
dichloropyridazine
##germole
diethoxyphosphinothioylsulfanylacetyl
##phthalazino
difluoropropane
tetraoxacyclopentadec
##phenoxathiine
ylazanidylsulfonyl
pentahydroxide
thiazaphosphol
diphenacyl
me
nyl
yd
##ilino
##for
##ca
##cadmium
ylphenanthrene
ylhexanoic
ylethene
ylthiadiazole
yladamantane
ylethanimidamide
ylnonan
dioctadec
methylthiolane
methylmethanimidothioic
methyloctadecanoic
methylhydroxylamine
methylcyclobutanecarboxamide
##inon
hydroxypyrrole
hydroxycyclohexan
hydroxyphenanthren
hydroxyars
hydroxytrideca
hydroxycyclohexen
hydroxyicosanoate
triimine
trimagnesium
oxodecyl
oxotetracosa
oxotetradecanoyl
oxothiomorpholine
oxozirconium
oxocin
phenylanthracene
phenyltetracyclo
phenyloctyl
phenylcyclohepta
phenylcyclopropan
phenylazepane
phenylcyclobut
phenylethenol
ethanethioyl
methoxycyclopent
methoxycyclohepta
methoxyphenazin
aminopropanamide
aminopyrimidine
aminopiperidine
aminooctyl
dimethyloctadec
chlorocyclopentyl
chloroethane
chlorohexanoate
chlorohexadecyl
chlorooctadecyl
ethyloxolane
ethylcarbamimidothioate
oxymethoxy
oxysulfonyl
oxyicosanoate
##decanamide
methylideneundec
dihydrophthalazino
dioxaza
dihydroxycyclopent
dihydroxypyrano
fluoroacetamide
##hexanediamide
bromopyrimidine
bromoethanone
##ali
nitrohexan
nitroisoquinoline
nitrobutane
nitroquinoxaline
dioxothiophen
dioxododec
dioxoquinoxalin
tetrahydroazulene
trihydroxypentacyclo
trihydroxyhenicos
trihydroxynonadecyl
dimethoxypyrimidine
dimethoxyquinazoline
trimethylfuran
trimethylporphyrin
trimethylpyrazin
trimethylpropanimidamide
##imidoselenoic
dichloroamino
dichloronaphthalene
dichlorobenzohydrazide
dichlorohexa
enylpropane
octazahexacyclo
propylbutanamide
trifluoroanilino
ylideneazaniumyl
ylidenecyclodeca
sulfanylideneethyl
sulfanylidenequinazolin
diaziridine
diazanonacyclo
carbonylcarbamothioyl
##atriazol
tetraethoxy
tetrathiocyanate
acetamidocarbamoyl
methylsulfanylmethoxy
methylsulfanylethane
methylsulfanylpyrazine
diethylpyridine
diethylpentan
cyclohexylcarbamothioylamino
cyclohexylsulfamate
hexahydrotetracene
hexahydroindazol
dodecoxyphenyl
dodecanedioate
##heptanoyl
tetramethylcyclopent
tetramethylpyrrolidine
tetramethylanthracene
tetramethylcyclobutane
22h
##benzenecarbothioate
diphenylphenyl
trimethoxyphenol
acetyloxyamino
acetyloxyoctadec
benzoylindol
ethenylhydrazinylidene
octahydrochromen
octahydroquinoxaline
##octene
phenylmethoxytriazole
##tetracont
##tetratriacontane
iodobicyclo
iodopropane
cyclopentylbenzene
##methanethiol
yloxypyrimidin
yloxyethanol
octadecoxyphenyl
difluoroacetate
cyclopropylthiourea
pentamethylhept
pentamethylpentacyclo
pentayne
decahydroisoquinoline
undecazatricyclo
octadecaoxo
trichloroethanol
pentaenylidene
ylsulfanylpropanoic
ylsulfanylformate
dibromopropoxy
methylsulfonylbutanoic
trimethylsilylmethylidene
tetrahydroxypentoxy
hexamethylbenzene
hexamethylcyclohexane
chloroethylsulfanylmethyl
hexylideneamino
hexadeuterio
ethylidenehydrazine
ylsulfonylpyridin
phenylpropanethioate
dinitropiperidin
dithietan
propoxyethoxy
propoxymethanolate
trioxopiperidin
phenylsulfanylpyridine
##ecarboxylic
henhexaconta
ethoxycarbonylhydrazinylidene
trimethylsilyloxyoxolan
trimethylsilyloxybutan
trimethylsilyloxyheptan
azaniumylmethoxymethyl
nitrosopent
sulfoethylamino
##elium
##diaziridin
heptanylamino
triacetyloxybenzoate
dibutylstannanylium
##dithiine
pentazaspiro
##aphosphocan
thiadiazepan
nonaoxa
phenacylbenzamide
octadecanenitrile
dimethylbutanoyloxy
##butanehydrazide
phosphonobutanoic
phenylpentanedioic
43z
pentafluoroanilino
decylsulfonyl
hydroxyiminoacetyl
hydroxyiminobutan
cyclopropanecarbonyloxy
hydroperoxyoctadec
butylcarbamoylsulfamoyl
dimethylindolo
arsanium
arsoryl
ethylsulfonylethylsulfanyl
phenyldiazenylbenzoate
hexoxyethoxy
hexahydroxyheptanoate
tribromoethyl
ylbutanedioic
##selanium
undecylsulfanyl
diiodobenzamide
methoxybenzenecarboximidamide
propanoyloxyethyl
propanoyloxypropoxy
pentoxyethoxy
chloropropylsulfanyl
ylpentanediamide
octahydrocyclonona
chloropalladium
chlorophosph
pentadecylphenyl
pentadecylphenol
pentafluoropropan
hexachlorocyclohexane
hexachlorodibenzofuran
hexachlorodibenzo
methylhexadecoxy
phosphinothioylsulfanyl
methyltetradecanoyl
hydroxydecan
##osphir
tetradecanoyloxyethyl
trifluoromethanesulfonamide
##azanidyliminomethyl
hexaoxabicyclo
hexaoxapentacyclo
sulfanylpropylsulfanyl
tetrachloropyridine
##oxathiine
trifluoromethylsulfonyloxy
phenylselanylmethyl
tridecaenoic
##oxecan
methyltridecan
arsorite
triynoate
didodecoxy
##bromite
hydroxyoctylidene
dicyclopentylacetyl
diynylidenespiro
10cs
aceanthrylen
cyanonaphthalen
oxypentanal
thiatriazin
oxytetradecanoic
diazocane
octaoxapentacyclo
dihexadecoxypropyl
dioxazaphosphocan
oxidoiminobutan
chloropiperidin
##lumbyl
cali
no
##hypo
##ethyne
ylphosphonic
diboranuid
methylicosa
methylcyclobutyl
methylmethanimidamide
methylazepane
methylazulene
methylchrysene
methyloxecane
##ropalladium
##oxaziridine
hydroxyfuro
hydroxyinden
benzazonin
oxotridec
oxotin
oxopyrazino
oxocan
oxomolybdenum
phenylnaphtho
phenylxanthen
phenylphosphanyl
phenyldodecyl
phenylpteridin
phenylazanidyl
phenylphenolate
methoxybutanoate
methoxysulfinyl
methoxycarbonimidoyl
methoxycyclohexen
aminododec
aminobenzenesulfonate
aminododecyl
aminobenzenesulfonic
dimethylazanide
dimethyloctadecan
dimethylgermane
dimethyldodecan
chloromercurio
ethylpurin
ethylcarbamimidoyl
ethylcarbamothioate
ethyldecan
ethyloxetan
benzosilole
##ecan
oxyanthracen
oxyethanimidothioate
143
methylidenebutanoyl
methylidenepentan
methylidenehenicosa
dihydrotetracen
sulfanylbenzo
sulfanylpyran
sulfanylbutanedioic
##pentasilolane
dihydroxyhexa
dihydroxyphenolate
fluorochromen
fluoroethenyl
fluoroethane
fluoroethylamino
hexatriacontan
propanethioyl
bromopiperidin
bromoethynyl
bromobutoxy
nitrocarbazole
dioxopentanoic
tetrahydropentaleno
pentaleno
##anoylcyclopent
dimethoxyprop
dimethoxybutyl
azinan
trimethylpyrrolidine
trimethylpyrimido
trimethylcyclohepta
trimethylnonan
ethoxybutan
dichlorobutane
dichlorofluoren
dichloroiron
dichloromanganese
butylprop
butylbicyclo
butylpiperazin
enylpyrazine
enylthiochromeno
enylsulfonylbenzene
benzylmorpholin
benzylcarbamimidothioic
propylhept
propylbenzoate
propylchromene
propylheptyl
propyloxolane
propylcarbamimidoyl
propylpentanoyl
##carboperoxoate
ylidenecyclohexan
cyanopyridine
cyanocyclopentyl
methylbutanediamide
benzodioxazin
benzodioxocine
methylsulfanylethoxy
diethylpent
diethylbutane
sulfonylpropanoic
cyclohexylspiro
cyclohexylimidazo
cyclohexylpropanoic
cyclohexylbutanamide
phosphatetracyclo
##heptene
tetramethylpentan
decanedioic
##benzenesulfonyl
diphenylcarbamoyl
diphenylcyclohexyl
diphenyltriazol
diphenyloxolane
diphenylhexa
diphenylaziridin
diphenylpentanoic
diphenylcyclobutyl
iminoacetate
oxobutanoyloxy
carbamoylthiophen
trimethoxynaphthalene
propanoyliminocyclohexa
carboxypent
tetradecoxyphenyl
benzoylcarbamate
octahydroanthracene
hydroxyethylazanium
phenylmethoxypyran
anilinophenoxy
anilinoquinoxalin
##tetratriaconta
oxopentanedioate
iodopropyl
carbamothioylcarbamoyl
##iminomethanedithiol
##methanethione
octadecahydro
difluoroethene
pentamethyltetradeca
##butylsulfanyl
oxidopropanamide
decahydroisoquinolin
undecamethyl
##onia
trichlororhodium
ylsulfanylthieno
methylsulfonylpyrimido
pentylthieno
pentylpyran
319
##ethenylbenzene
trimethylsilylethanamine
oxobutanal
diethoxyisoquinolin
sulfamoylbenzoyl
oxopropanimidate
silaspiro
hexylcyclohex
ylsulfonylprop
ylsulfonylacetamide
328
##oxocan
formyloxyphenyl
dithiars
ethylsulfanylformate
methanesulfonyl
methanesulfinate
butoxypropan
butoxyphosphoryl
phenylsulfanylpyrrolidin
phenylsulfanylaniline
dinitroethoxy
methylheptanal
benzylsulfanylbenzimidazol
ethoxycarbonylpyrimidin
dihydroindolizin
nonadecazapentacyclo
trimethylsilyloxyethanamine
trimethylsilyloxyethanimine
phosphonooxypentyl
butanoylpiperidin
nitrosoimidazo
##nonanamide
carboxymethylimino
##carbamothioylsulfanyl
##diazetidine
dibenzylethane
chloromethylsulfonyl
##thiochromene
octylacetamide
octylideneamino
octylthiiran
heptanyloxy
##heptanal
sulfooxyoxolan
dipropylbenzo
azidoethyl
trioxaoctacyclo
decaoxaundecacyclo
enylsulfanylmethyl
phosphonopent
phosphonobutyl
oxycarbonyloxyethoxy
methylhexadeca
butylsulfanylpyridine
benzoyloxypropyl
carbamimidoylpiperidin
diethoxyphosphorylpropan
hydroxyiminocyclohexyl
sulfonatomethyl
oxoheptane
carboxybutanoyloxy
ethylsulfonylmethyl
octadecylcarbamoyl
hexadecylpyridin
aminopropylsulfanyl
dimethylpentoxy
azanidylacetyl
ethoxymethylideneamino
ethoxymethylphosphinothioylsulfanyl
tetrazacyclotetradeca
tetrahydroisoindolo
ynedioate
sulfinylbenzene
sulfinylbenzonitrile
hexaenylmethyl
##borolane
##arsinine
nitropropylidene
trinitroethyl
fluoranylacetyl
tributylgermane
oxathiolo
##asilecane
phosphonatooxycyclohexyl
hydroxyhexylidene
dihydrothiochromene
dimethylsilylphenyl
octazacyclotetracosane
methylbutanehydrazide
dioxaborinin
hydroxyhexadecan
##arsanylsulfanyl
triazacyclotridecan
fluoropropanoic
octacosanoate
octacosanamide
dioxacyclotetradeca
dimethylcarbamothioyloxy
dimethoxyphosphinothioylsulfanylmethyl
methyltridecanoate
pentahydroxyhexylidene
oxododecanoate
nonoxyethoxy
hexacarboxylate
tetradecoxysilane
pentadecanoyloxypropoxy
nitrophenanthridin
##asilocan
diethoxyphosphorylsulfanylethyl
dichloropentyl
trichloroethoxycarbonylamino
dimethylcyclododeca
tetrasulfonic
dioxothietan
octachlorotricyclo
tellurate
##cycloheptene
sulfanylhexylsulfanyl
oxynonadecanoate
methoxysulfonylcarbamoyloxy
##perimidin
ditrityl
fluoropyrrolidin
benzodioxasilin
dimethanidylbutane
azidosulfonyl
hydroxysulfonothioyloxyethyl
methanonapthalen
##fornium
hydroxyarsinate
californium
##rido
##roxy
ylcyclopenta
yltetradec
ylphenanthren
ylbenzenesulfonate
ylhydroxylamine
diiminocyclohexa
methyltetracos
methyloxadiazol
methylphenoxazin
##azaborole
hydroxyimidazole
hydroxythiophene
hydroxyxanthen
##onatooxy
tripropoxy
trithian
carbothi
oxocyclopenta
oxoacenaphthylen
phenylthi
phenyldodeca
phenylisochromen
phenylnona
phenylnonan
phenylthiadiazol
phenylphenanthridine
phenylarsinic
methoxytetracyclo
methoxynaphtho
propanedithioate
aminohex
aminosulfanyl
aminoethenyl
aminocarbamimidothioic
aminopentanoic
dimethyltri
dimethylarsane
chloroamino
chlorooxolan
chlorocyclohexane
chloroquinazoline
chloronickel
ethylguanidine
ethyltriazolo
oxyfuran
oxydeca
oxytridec
oxydocos
oxypentoxy
139
methylidenecyclo
methylidenecyclodec
dihydrocarbazol
dihydrophenalen
dihydrogermole
sulfanylbutane
dioxepin
dioxasilolane
##oyloxy
##pentacontan
dihydroxypropanoate
dihydroxyoctyl
dihydroxycyclohexene
dihydroxyhexadecanoic
##dial
##disil
cyclodec
cyclododecane
bromohex
nitrohex
nitrodibenzo
dicesium
dioxopentyl
dioxoisoquinoline
dioxoheptanoic
dioxocyclohexene
tetrahydroazepin
pentatriacontan
azolidin
trimethylhydrazine
trimethylazepan
ylmethylazanide
acetylpyridin
dichlorocyclohexane
butylchromen
butylthieno
butylimidazo
butylcyclohexen
enylpyrazolo
octatetracontane
benzylprop
benzylurea
benzylimidazole
propylcyclohex
propylcyclopent
propylpropane
propylpropanedioate
benzothiaphosphinine
##carbohydrazon
ylidenecyclopentane
tetraamino
tetrathiane
acetamidocyclohexyl
methylsulfanylacetamide
methylsulfanylimidazole
methylsulfanylphenol
methylsulfanylcarbonimidoyl
sulfonylbenzenecarboximidamide
cyclohexylcyclohexane
phosphindol
dodecoxymethyl
tetramethylbenzo
tetramethyloctane
benzoxepino
benzoxasiline
phenoxyquinoline
phenoxyhexyl
phenoxypropanehydrazide
diphenylguanidine
diphenylhydrazine
diphenylheptane
diphenylaziridine
iminoquinoxalin
carbamoylimidazol
##dotriacontan
carboxyheptyl
carboxybuta
##phosphinan
acetyloxynaphthalen
tetradecylideneoxolan
ethenylpiperidin
ethenylpyridine
hydroxyethylazaniumyl
hydroxyethylsulfanylmethyl
phenylmethoxyquinoline
phenylmethoxypyridine
phenylmethoxyaniline
anilinopropyl
anilinobenzoate
anilinoethylamino
tridecanoic
ylethylsulfonylamino
##tetraconta
dioxaborolo
iodobut
iodopurin
iodomercury
diaminonaphthalene
diaminopentanoic
##butanethioate
hydrazinylpurin
ylmethylidenehydrazine
yloxypropane
hexadecoxymethyl
##silver
cyclopropyltriazolo
ynoxyethyl
pentamethylquinoline
pentamethylpentadec
pentaenoxy
ylsulfanylbenzene
ylsulfanylacetate
dibromobutyl
dibromopropanoate
thiohydroxylamine
trimethylsilylhept
trimethylsilylpurin
tetrahydroxypentanoate
phosphorylbenzene
hydroxypropylsulfamoyl
dienyloxan
diethoxyethylamino
sulfamoylamino
hexylsulfonyl
methylbutylideneamino
methylbutylcarbamoylamino
ylpropylideneamino
ynylpyrimidine
octanethioate
dinitrophenanthrene
formylpyrrol
formylnaphthalen
propoxynaphthalene
propoxysilane
ethylsulfanylpyrimidin
ethylsulfanylmethanimidothioic
phenylsulfanylbicyclo
phenylsulfanylpropanoate
phenylsulfanylpyrazine
10bh
35z
diacetyloxyoxan
ethoxycarbonylfuran
ethoxycarbonyloxyphenyl
nonadecanoyloxypropoxy
benzamidopyridin
benzamidobutyl
methylbenzenecarbothioamide
azaniumylbutanoate
azaniumylpentanoate
benzylideneoctyl
benzylidenebutylidene
phosphonooxypentanoic
carboxymethylazanide
sulfoacetyl
sulfoacetic
phenylethenylsulfonylamino
##octadecanoyloxy
tetracyclohexyl
8bh
sulfooxypropyl
##dithiolane
dipropylpropan
dipropylnaphthalene
dipropylcarbamothioate
enedial
octafluoropent
octafluoropentyl
42z
carboxylatopentyl
phenacylamino
phenacylazanium
ylmethanimidamide
octaenal
enylsulfanylpyridin
cycloheptylspiro
enoyloxyethoxy
propylsulfanylpyrimidin
phenylmethanimidate
methyliminohydrazinyl
nonylpyrrolidine
sulfonatooxyphenyl
##fluorid
methylcarbamoylsulfanyl
dimethylpropanoylcarbamothioylamino
hydroperoxyoct
##azacyclonon
arsanylidyne
ethylsulfonylethyl
oxohexanal
aminoethoxymethyl
hexoxyanilino
formamidoethyl
dicyclohexylcarbamimidothioate
hydroxypentanamide
ylbutoxy
hydroxypropoxymethyl
dimethylpropanal
cyclobutylidene
dimethylpentanedioate
methyloctanoylamino
pentoxycarbonylamino
tritylimidazole
hexafluoropropoxy
tridecylcyclohexa
phenacylsulfanylquinazolin
phenylsulfanylmethylsulfanyl
pentaoxapent
decaenoate
oxathiin
ethylcarbamoyloxymethyl
methylhexadecane
62s
dichloropropoxy
octadecanoyloxymethyl
tetracarboxamide
pentamethoxyhexan
pentacosyl
66s
azocine
trifluoromethylsulfonylamino
phenylselanylprop
ylethanesulfonate
dimethylcarbamothioylimino
69s
hydroxydodecanoylamino
butoxypropylamino
heptadecafluorodecyl
diphosphonooxy
dimethylpropanimidamide
dotetracontan
dichlorophenolate
dihydrooxepin
tridecoxyethoxy
curium
phenoxybutylsulfanyl
iminoethylideneamino
thiatriazine
trioxacyclohexadeca
##hect
diiodophenol
disilver
trimethylsilyloxyiminoindol
cyclododecen
ditritio
dimethylarsorylmethyl
sulfooxyhexanimidothioate
cyclopropylsulfonylcarbamoyl
##onitrous
methylsulfanylcarbonyloxymethyl
##silocin
trioxadisilocin
methylidenetrideca
##inonyl
dioxazaboro
didi
##eric
##ophosph
##adi
##silino
##ang
ylstannane
ylpteridine
ylcyclopropanecarboxamide
dim
diars
dibismuth
methylnitramide
hydroxyhepta
hydroxyhexoxy
hydroxytetracosa
hydroxydodecan
hydroxyacetaldehyde
hydroxydotriacont
##atophenoxy
##enep
tripyridin
triiod
oxoindole
oxopyrazole
oxogermane
oxohenicosa
phenylcyclobutyl
americ
ethynoxy
methoxypiperidine
methoxyhexan
methoxyhexyl
methoxyacetic
methoxybutane
methoxyhexane
aminoquinoline
aminooxymethyl
aminobutane
aminooctane
dimethylisoquinolin
dimethylisochromen
dimethylfluoren
dimethylindeno
dimethylphosphane
dimethyltriazolo
dimethylazulene
dimethylphenothiazin
dimethylcyclopentylidene
chlorofuro
chlorocyclohexan
chlorohexa
chloroindazol
chlorotetradecyl
ethylbicyclo
ethylpurine
ethylcyclohexan
ethylsilolane
ethylbutanoyloxy
enimidoyl
benzosilino
oxypyrrolidin
oxyoctadecanoic
13n
##decanedioic
methylidenepyrrolidin
methylideneoxolane
dihydrophosphinolin
sulfanylethenyl
sulfanylbenzimidazole
sulfanylethanesulfonic
##pentacosane
dihydroxypyrrolidin
dihydroxypentanoic
##adecane
fluorocyclopropyl
fluoroindolo
##aceno
bromopentan
##alithium
nitrochromene
nitroethanol
nitroindeno
nitroindene
##acyclododecane
dioxohepta
dioxopurine
dioxooctan
dioxopteridine
dioxophenoxathiin
tetrahydropyridazino
tetrahydrochrysen
trihydroxynaphthalene
trihydroxyhexyl
trihydroxypentanoic
trihydroxypentadecyl
pentatriacontane
dimethoxypyridin
##astann
trimethyloctan
trimethylbenzenecarboximidamide
trimethylpentoxy
ethoxysulfonyl
ethoxyacetate
ethoxytetrazolo
ylmethyldisulfanyl
acetylcarbamoyl
acetylbenzimidazol
dichlorohexane
dichlorobenzenesulfonic
butylpropanedioate
enyloxy
enylanilino
enylpyrimido
benzylpyrimidin
benzylthiourea
benzyltriazole
heptatriacontane
propylaniline
propylmorpholin
propylazetidin
propylindolo
ylidenepyrrol
ylidenepropanedinitrile
sulfanylideneprop
sulfanylidenepyrrolidine
##atrispiro
tetraynyl
methy
methylsulfanylcyclohexyl
methylsulfanylbutane
dohexaconta
diethylborane
sulfonylpropanehydrazide
cyclohexylbut
hexahydroanthracene
hexahydrophenanthridin
phosphacyclohexa
tetramethylimidazol
tetramethylfuro
tetramethylcyclohexa
tetramethylcyclohexan
tetramethylhexanoate
tetramethylpentadec
phenoxypyridin
diphenylchromen
diphenylisoindol
diphenylthiophen
diphenylquinoxalin
diphenylphosphanium
iminoquinoline
232
carboxypropoxy
benzoylazanium
benzoylpiperidine
octahydroquinoline
octahydropyrimido
phenylmethoxypurin
tridecacyclo
hydroxypropanenitrile
iodomercuriomethyl
cyclopentylazanium
cyclopentylspiro
##tritriaconta
yloxypyridin
yloxyacetic
yloxycyclohexene
dodecahydrocorrin
dodecahydrocyclododeca
difluoroboranyloxy
cyclopropylphenoxy
pentapotassium
pentafluoropentyl
oxidoindolo
indaceno
##acontamethyl
trichloroimidazo
trichloroethanimidate
fluorom
ylsulfanylprop
ylsulfanylpyrimidin
dibromospiro
dibromobutane
dibromodibenzofuran
methylsulfonylpropanamide
methylsulfonylaniline
pentylimidazol
pentylcyclohex
pentylpurine
pentylnitrous
##fluorite
311c
trimethylsilylacetamide
diethoxybutan
sulfamoyloxy
hexylbenzoyl
heptaenoate
hexafluoropent
ylsulfonylpropanoyl
ylsulfonylmorpholine
heptamethyldocosa
dinitrophen
dinitropiperidine
32p
formylthiophene
dithiazole
ethylsulfanylethoxy
phenylsulfanylpyridin
phenylsulfanylpropanoylamino
methoxycarbonylsulfamic
dinitrobenzenesulfonamide
oxopentanal
henpentaconta
##hexanenitrile
heptadecanoyloxypropan
diacetyloxypropan
trimethylsilyloxypropoxy
phosphonooxycyclohexene
butanoylphenoxy
heptaethyl
nitrosobenzamide
nitrosopyrimidin
nitrosopiperidin
nitrosopiperazin
nitrosopiperazine
nitrosoethylidene
carboxymethylidene
##diazetidin
triphenylbut
triphenylpiperidin
octylphenol
##terephthal
sulfooxybenzoic
sulfooxyoctadecanoate
azidophenothiazin
ylmethanethiol
nitropyrrolo
decahydrate
##carbonohydrazonoyl
enylsulfanylthieno
enylsulfanylmethanimidothioic
phenyliminochromene
tetramethoxyisoquinolino
##oxathiolane
deuteri
diazoniaspiro
triethylstannane
diethoxyphosphoryloxy
nonylquinolin
nonylbenzene
nonylpyridin
hydroxyiminocyclohexa
tetrahydropteridine
ylsulfanylmethylsulfanyl
##aphosphinane
methylsulfinylbenzene
phenyldiazenylbenzene
##ropenta
formamidopropanoic
octadecylcarbamate
hydroxypentoxy
hydroxybutanethioate
azanidylphenyl
phenylbutanoyloxy
diazoniophenyl
tetrazacyclotridecane
tetrazacyclotetracosane
chlorobuta
dioxidomethylidene
pentoxysilane
trichloroethylidene
bromonon
dihydroxypropoxymethyl
oxonaphtho
##ocane
nitropropanoyloxy
phenacylsulfanylpurine
ylbutanal
trifluoroethylsulfonylamino
ylcyclobut
tetraphenylbicyclo
octoxybenzamide
##asilatetracyclo
sulfonyloxybutyl
sulfonyloxynaphthalene
diphenoxyacetamide
azacyclotridecane
phosphonatooxybutanoate
dichloropropane
phosphinothioylamino
##olybdenio
methyltetradecan
methyltetradecanamide
##selenophene
phenylcyclohexene
phenylbenzenecarbothioamide
tetraethylbenzene
disulfooxyoxane
methylnonanoate
dimethylpentanenitrile
sulfidopropyl
methyldecane
nitrobenzotriazole
diethoxyphosphinothioylsulfanylmethyl
methylundecanoic
methanidylbenzene
##henicosanoic
hexaoxatetracyclo
methylpentadecanoic
70r
azanidylethylazanidyl
ethenoxycarbonylamino
selanylpurin
methylheptadecyl
undecazacyclotritriacont
phenylbutanehydrazide
dipropoxyphosphinothioyl
methyltridecanoyl
72s
pentadecafluorooctyl
oxoundecanoic
oxotetradecanoic
arsoros
nitropentane
ylpentylidene
hydroxynonanoic
tetraphosphonooxycyclohexyl
triacontyl
##azaoctacyclo
oxydecanoic
benzenecarbohydrazonoyl
##carbonyloxypropanoate
bromobenzenecarbothioate
difluorophosphoryl
dioxothiepane
pentachloride
deuteriomethyl
azaniumylpropylazaniumyl
benzodioxaborinin
aminoheptylamino
hexachloropentacyclo
sulfinato
sulfanylpentylidene
oxyheptadecanoate
methyltricosanoate
benzylideneheptylidene
triphosphonooxycyclohexyl
biphenylen
selone
dicyanomethyldiazenyl
hydroxytricosanamide
tetrazanidacyclotetradecane
phenarsazinine
ylcyclobutanecarboxamide
americium
henyl
polane
##oro
##operoxoic
ylisoindol
ylhexadec
ylacridin
yltriazolo
ylpteridin
ylheptanoic
yldiselanyl
disilyl
diformate
methylthiolan
methyldocos
##azirine
##oxymethoxy
oxazepine
hydroxythiophen
hydroxyacridin
hydroxyindeno
hydroxyheptanoic
##onin
oxodocos
oxodithiolan
phenylacridine
phenylethanimidoyl
phenylethenamine
ethanedithioic
methoxysulfanyl
methoxypyrimido
methoxyethanol
methoxyanthracen
methoxymethanimidothioic
propanedihydrazide
aminobicyclo
aminoquinazolin
aminooctadeca
dimethylhexacyclo
dimethylquinolino
dimethylidenetricyclo
dimethylnonadecan
10λ6
chloroisoindole
chloroform
chloroheptadec
ethylnaphthalene
ethylsilane
ethylacridin
oxypyran
oxyheptyl
oxyisoindole
oxyoctan
methylidenecyclohexa
methylidenepentane
methylidenecyclohexene
methylidenecyanamide
dihydroxanthen
17a
sulfanylpyrido
sulfanylpyrazole
sulfanylpentanoic
dihydroxypropane
dihydroxybutanoate
dihydroxytetracos
##adecanoic
fluoroquinazolin
fluoroimidazo
bromopropane
bromohexyl
bromohexanoyl
nitromethane
nitrohept
nitrocyclopent
nitrocarbamate
nitroethane
nitroquinazoline
nitroindolo
##acyclohexane
dioxocyclopentyl
dioxotetracyclo
dioxoundeca
dioxoheptanoate
dioxopurino
tetrahydroazepino
tetrahydropyrrolizine
trihydroxyoctadeca
trihydroxytetradecyl
trihydroxyoctoxy
azaphosphinan
##sulfanylethylamino
trimethylpiperazin
trimethylpyran
trimethyloctadeca
trimethylbenzenesulfonic
ethoxypyrimidin
ethoxybenzenesulfonate
##oruthenium
butylpyrazol
butylquinoline
butylcyclopenta
butylthiourea
butylphosphanyl
butylphosphanylethyl
enylthiophene
benzylpropanamide
benzylhydrazinyl
propylhexan
propylsilane
propylhydrazine
propyloxamide
trifluorobenzoyl
trifluoroboranuid
##amethyldo
ylidenecyclohex
ylidenepyrrolidine
sulfanylidenebenzimidazol
diazirine
cyanobutyl
benzodioxaborol
methylsulfanyltriazolo
dopentacontane
diethylcyclopropane
sulfonylacetyl
benzenesulfinic
cyclohexyloxyphenyl
cyclohexylpiperidin
cyclohexyloxymethyl
hexahydroxide
hexahydrooxonine
phosphol
tetramethylbenzoate
tetramethylcyclopenta
tetramethylhexan
tetramethylundec
tetramethylacridine
tetramethylpentane
tetramethylpentadeca
tetramethylpropanimidamide
decoxymethyl
benzoxaphosphole
benzoxocine
047
phenoxypyrazine
diphenylbenzamide
diphenylpyrimido
diphenylmethanamine
diphenyloxirane
diphenylindeno
diphenylstannane
diphenyliodanium
diphenylcyclobutanecarbonyl
iminopyrazine
carbamoylpiperidine
enedithi
propanoylpyrrolidine
acetyloxyethoxy
acetyloxyethylidene
acetyloxypropanoyloxy
methylpentanoyloxy
methylpentanoylamino
methylpentacosane
benzoylpyrrol
ethenylcyclohexyl
octahydroisoindole
octahydrochrysen
hydroxyethylideneamino
##octanoyl
methylaminomethylidene
phenylmethoxybutanoyl
phenylmethoxypropanoic
tridecoxypropyl
tridecanoyloxypropoxy
25a
trioxolane
26a
cyclopentylphenoxy
tricalcium
hydrazinylpyrimidin
yloxypropoxy
cyclopropylbenzenesulfonamide
cyclopropylmethylidene
pentapentaconta
28a
oxidoacetamide
oxidopyrimido
oxidomethylidene
undecacyclo
30a
trichloronaphthalene
29a
ylsulfanylpyrimidine
ylsulfanylbutanoic
dibromofluoren
dibromocobalt
methylsulfonylbenzoyl
pentylpiperidin
pentylphenol
31a
trimethylsilylmethanamine
10ah
tetrahydroxyspiro
tetrahydroxynaphthalene
hexamethyltricyclo
##inite
diethoxyethoxy
diethoxyethane
hexylquinolin
hexylcyclohexane
hexyloctyl
ynylideneamino
32a
formylpyrrolidine
33a
ethylsulfanylethylamino
phenylsulfanylbutanenitrile
methoxycarbonylbenzoic
methoxycarbonyldisulfanyl
methoxycarbonyloxyethyl
hydrazinylidenefluoren
35a
dinitrospiro
dinitroanthracene
34a
ylpropanimidamide
ethoxycarbonylhydrazinyl
36e
36a
dihydrobenzotriazol
ethanebis
benzamidobenzamide
benzamidopropanoate
##hexylsulfanyl
azaniumylphenyl
phosphonooxyoxane
sulfopropanoyl
sulfoanthracen
##carbamothioylimino
##diazecine
dibenzylpiperazine
dibenzylimidazolidin
benzhydrylacetamide
triphenylstibane
##thioamide
octylbenzimidazol
octylsulfinyl
##heptanenitrile
sulfooxyphenoxy
sulfooxyhept
propylaminomethyl
dipropylquinoline
##aphospholane
hexazaspiro
hexazaheptacyclo
oxyethylazanium
##ethanesulfonamide
carboxyethylcarbamoyl
nonaox
phenacylideneamino
ylmethanimidothioic
nitropyrrol
decaide
decaoxa
chloropropanoic
phosphonopentanoic
benzotrithi
dodecylcarbamimidothioic
dodecylbenzenesulfonate
propylsulfanylthieno
methylhexanedioate
hexadecahydroindeno
diazonionaphthalen
triethylethane
methoxychromenylium
diethoxyphosphorylacetate
dimethylheptanoic
dimethylheptacosane
indazolo
dioxanonacyclo
tetracosaene
yloxypropylsulfanyl
##azonium
##idenetetracyclo
dicyclohexylcarbamoyl
octadecylpyridin
tribromoacetate
cyclobutyloxy
tetrazadodecacyclo
henicosanamide
##acenaphthyleno
tricosanoylamino
tetrazacyclopentadec
methoxybenzenecarbothioyl
sulfinylacetyl
pentazacyclohexacos
hydroxyoctanoic
hydroxyoctanoylamino
pentoxybenzoate
isocyanatohexyl
hydroxytetradecanamide
sulfonylmethylsulfonyl
ylbutanethioate
oxybutylidene
ylpentanoylsulfanyl
pentachloronaphthalene
diynylbenzene
cyclohexylcarbamoylsulfamoyl
methylpropanehydrazide
sulfonyloxyethoxy
sulfonyloxypyrrolidine
methyltetradecoxy
methylsulfonyloxyoxolan
chlorophenanthrene
phenylbenzenesulfinamide
methylhexanal
methylnonanamide
diazacyclopentadecane
oxidonitrous
dimethoxybenzenediazonium
chloropentanoylamino
phenylhexanenitrile
pentamethoxyphenyl
diethoxyphosphinothioylhydrazinylidene
methyldodecoxy
methylundecanoylamino
hydroxyhexadecoxy
silicic
ylbenzotriazole
tetrafluoropropan
ethylhexoxycarbonyl
thiocyanatopropanoate
benzenecarboperoxoate
acetamidomethylsulfanyl
phenylheptanamide
azaniumylidenepropyl
methylheptadecanoyloxy
terephthal
tridecafluorohexane
phenylethanesulfonic
trichloropropane
oxotetradecanoate
tetrathiabicyclo
dimethylpropanediamide
dihydroxyhexacos
76s
73s
dichloropyrrole
cyclobutene
##oselenoate
nitroindolizine
dichloropentane
dichloropentacyclo
oxydecanoyloxy
carbamoylsulfanylacetyl
cuban
dibromonickel
tetrasulfooxy
trifluoroethanesulfonamide
trisulfonatooxy
thiatriazol
tetrapropylazanium
sulfanylbutylsulfanyl
sulfurothioic
trioxothieno
oxoniocarbonyl
carbonochloridoylphenyl
phenyloxaziridine
trifluoropentanoic
oxazaborinane
trinaphthalen
pentaoxapentasilecane
##angan
trifluoroboranuidyl
radium
λ7
##europium
ylmorpholin
ylacridine
ylselanyl
ylphthalazine
ylthioxanthen
ylcarbazole
ylcyanamide
ylethenamine
ylnitramide
disulfamoyl
methylpyrazino
methyloctadecan
methylisoquinolino
methylbenzenethiol
##inous
oxecine
##oxepino
hydroxyindole
hydroxyimidazo
hydroxypyridazin
hydroxytriacont
hydroxythioxanthen
triheptyl
tribor
carbothioic
oxooctadecane
oxopteridine
oxoalumane
phenylcarbamodithioate
phenyladamantane
phenylnonyl
phenylheptadeca
phenyldecan
phenylbenzenecarboximidothioic
phenylarsane
phenylethanimidothioic
methoxypyrido
methoxybutanoyl
methoxypyrrolo
methoxycyclopropane
methoxypentane
methoxypyridazine
aminocyclohex
aminodecyl
aminoheptanedioic
dimethylpyridazin
dimethyltetracene
dimethyladamantan
dimethyldibenzothiophene
chlorohept
chloroundecyl
chlorododecanoate
thiazaphosphole
ethylnaphthalen
ethylpyrido
ethylaziridine
ethylsulfamate
##cyclododecyl
benzosil
benzosel
tetralithium
oxycyclopentyl
oxyacetohydrazide
oxyheptane
oxycyclohexylidene
oxyheptanoic
135
methylideneoxane
methylidenedeca
methylidenebutoxy
dihydrofluoride
sulfanylpyrazolo
dihydroxyhydrazinylidene
dihydroxytetradec
dihydroxynaphtho
dihydroxybenzenesulfonic
##diamide
##methoxymethoxy
fluorobutyl
fluorocyclohexane
fluorofluoren
fluorothioxanthen
##acyanide
##ostannane
nitrocyclohexane
nitrocarbazol
nitroxanthen
##acyclobutane
trihydroxypentan
trihydroxypentanal
dimethoxypropanoate
trimethylpropanamide
trimethylpropane
trimethylstibane
trimethyltetradecyl
ethoxypyrimidine
ethoxyphenolate
ethoxycarbothioylsulfanyl
phenophosph
acetylpiperazine
butyloxolan
butylbutanamide
butylcarbamimidoyl
enylbenzoate
enylfuro
enylbenzoic
enyliminomethyl
enylbutanedioic
octoxyethyl
benzylbenzo
benzylimidazo
benzylmorpholine
benzyltriazolo
heptaconta
heptatriacont
propylprop
propylhex
propyloxane
propylphosphonic
trifluoroacetohydrazide
ylidenecyclopropane
ylidenepenta
sulfanylidenepurin
sulfanylidenecyclohexa
diaziridin
diazocin
cyanopyrazol
cyanopyrazin
acetamidothiophen
acetamidopropanoic
acetamidoethylamino
acetamidopropylamino
methylsulfanylfuran
methylsulfanylbenzo
methylsulfanylnaphthalene
methylsulfanylhexyl
methylsulfanylcyclohexan
diethylspiro
diethylpurine
diethylphosphinothioyl
diethylquinoxaline
sulfonylnaphthalen
sulfonylbenzimidazol
sulfonylcyclopropane
sulfonylazetidin
sulfonylmethylidene
sulfonylpropanenitrile
dienethioamide
215
cyclohexylfuran
cyclohexylpentyl
cyclohexylmethanimine
hexahydrobenzimidazol
hexahydrochromene
dodecazacyclo
dodecoxyethyl
##heptacos
tetramethyldec
tetramethylindol
tetramethylimidazolidin
tetramethyldodec
benzoxecin
diphenylphenol
diphenylcyclohexane
diphenylbenzohydrazide
diphenylpteridin
diphenylarsanyl
iminoacetyl
iminopropanoate
iminobenzenecarboximidamide
enoylpiperidin
enoylpiperazin
hydrosulfonyl
##rophene
trimethoxyspiro
trimethoxyoxane
trimethoxybenzaldehyde
propanoylcyclohexa
propanoylpyran
carboxypyridin
24a
tetradecone
hexadecaoxanonacyclo
benzoylpyrrolidine
benzoylthiophen
benzoylpiperazine
ethenylphosphonic
octahydrocarbazol
hydroxyethylimino
phenylmethoxypent
phenylmethoxysilane
phenylmethoxyquinoxalin
ylethylsulfamoyl
ylethylcarbamothioyl
iodopropan
iodobutyl
iodobutane
iodobenzaldehyde
diaminoacridin
carbamothioyldiazenyl
cyclopentylbenzenesulfonamide
27a
yloxyethanamine
##irene
octadecoxymethyl
cyclopropylcarbamoylamino
ynethioate
triazonane
oxidotriazol
undecanylidene
trichloroaniline
trichloroethane
trichlorofluoren
ylsulfanylmethylidene
methylsulfonylbutanoyl
pentyloxan
pentylcarbamate
pentylpyrazine
methoxyethylcarbamoylamino
benzenesulfonylcarbamoyl
trimethylsilylhex
tetrahydroxypentacyclo
tetrahydroxycyclohexane
tetrahydroxyicos
tetrahydroxypentanoic
phosphorylcarbamate
hexamethylhexacyclo
hexamethylicosa
diethoxypyrimidin
phosphonoyl
hexylurea
hexylsulfonylamino
oxopropylideneamino
icosafluoro
ynylbenzamide
ynylaniline
ynylcarbamate
hexabutyl
dinitropent
##ropropane
propoxybutan
propoxypyrimidine
propoxypropane
propoxybenzoic
methanehydrazonate
enoxybenzoic
phenylsulfanylmethylidene
phenylsulfanylethylamino
icosoxypropyl
dinitrothiophen
dinitroindazole
ylpropanediamide
methylheptanethioate
cyclohexanecarb
benzylsulfanylspiro
ethoxycarbonylimino
benzamidoacetic
benzamidothiolan
methylbenzenesulfinamide
phenylpropanoylhydrazinylidene
trimethylsilyloxyindol
trimethylsilyloxycyclopentyl
azaniumylethoxy
37a
benzylidenecyclohexylidene
phosphonooxyprop
phosphonooxyhexyl
nitrosopyrazol
39a
38a
##carboximidoyl
triphenylimidazol
triphenylacetamide
triphenylethanol
heptylazanium
##thiocine
heptanylideneamino
iodonaphthalene
phenylmethoxycarbonylaminomethyl
sulfooxyhexan
##dithian
azidopropan
##oxymethylbenzene
##sulfinylbenzene
methylazaniumylidene
42a
phenacyloxyphenyl
octaenylidene
oxacyclodo
oxacyclooct
enylsulfanylethyl
oxobutylsulfanyl
43a
dodecylphenoxy
cycloheptyliminomethyl
propylsulfanylphosphonic
nitrobenzenecarboximidamide
dimethylchromeno
tetrafluorocyclobutyl
diazoniahexacyclo
triethylgermyl
carbamimidoylcarbamimidoyl
oxoheptatetraconta
hydrazinesulfonyl
methylsulfinylprop
methylsulfinylpropan
methylsulfinylphenoxy
methylsulfinylbutanoate
phenyldiazenylprop
hydroxybuta
formamidoacetamide
tribromoanilino
tribromobenzene
tribromophenol
cyclobutylmethylamino
tetraenoyloxy
##hexapentaconta
diiodobenzene
diiodoarsanyl
2ah
methoxyiminoethyl
methoxyiminoacetic
pentoxyphenoxy
chloropyrrolidine
hydroxyoctadecan
dimethylbutanenitrile
##strontium
tetradecylpyridin
ynoxycarbonylamino
ynoxysilane
methylsulfanylpropylidene
cyclooctyloxy
cyclooctylacetamide
yliminomethanedithiol
dimethoxyphosphorylethyl
dimethoxyphosphoryloxy
diphenylpropanediamide
ylcyclobutane
tetrabromophenyl
difluoropent
cyclohexylcarbamoyloxymethyl
oxononanedioic
ethyliminomethanedithiol
nonatriacontahydrate
dimethylpropanehydrazide
phenylmethanolate
phosphinothioyloxy
octadecoxyethoxy
methyltetradecanoic
##seleninyl
dipentylazanium
oxohexacosa
oxohexanedioic
diazacyclooctadec
diazomethyl
oxidane
chloroethoxymethyl
methyldecanoic
hexazacyclotricosane
phenylmethanesulfonic
dioctylbenzamide
ethenesulfonate
yloxycarbonylthiophen
chloropentane
azanidapentacyclo
sulfonyliminopyrrolo
methyldodecanoyl
methyldodecanoic
methyldodecanamide
##carbothioyloxy
octazacyclotetracos
##henicosan
hydrazinecarbonylamino
phosphonatoethyl
tripropylsilyl
methylpentadecan
sulfanylpropylidene
tetrachlorophenol
tetrachloropalladium
benzenecarbodithioate
dioxacyclotetradec
fluorosulfonylbenzoate
acetamidoethyldisulfanyl
cyclopentylidenehydrazinyl
butoxycarbonyloxy
oxocyclododecyl
fluorobenzotriazole
pentadecafluoroheptane
pentadecafluorooctanoate
hydroxyheptanamide
dibutoxyphosphorylmethyl
dicyclopropylpropan
diformyloxy
methylcyclooctane
hentetracont
chloropyrazolo
dianilinophosphoryl
cyclopentylsulfanylcarbonylamino
82s
tetraiodobenzoyl
91s
diazaphospholidin
dimethylarsanylsulfanylmethyl
dichloronio
dinitropropan
heptaoxadodecacyclo
octadecylsulfanylpropan
##tellu
sulfonatophenoxy
pentathiepane
dihydroxyphosphinothioyloxy
benzylideneheptylideneamino
pentaphosphonooxycyclohexyl
##sulfinamoyl
phenylethanethione
diazadiphosphetidine
##ytterbium
##osphirane
##anganate
benzoselenep
dinonyl
##calcium
##ethanedihydrazide
##hentriacontan
yldodec
ylindolo
ylpyrazin
ylphenazin
ylazepane
yldodecan
ylsilolan
methyloctadecane
methylthiane
methyloxetane
##oxybutyl
oxete
##oxepine
##oxeto
hydroxytetracyclo
hydroxyheptanoate
hydroxynonan
##onatooxycyclohexyl
triide
triheptacontane
oxophenanthren
oxodibenzofuran
oxohexane
oxodithiolo
oxododecane
oxoethanimine
oxotridecan
oxotitanium
phenylundec
phenylthiane
phenyldodecan
phenylindazole
phenylacetaldehyde
phenylethanethioamide
methoxyhept
methoxyazanium
methoxyimidazolidin
methoxyheptyl
methoxyquinoxaline
methoxydodecanoate
aminothiophene
aminocyclopentyl
aminooctadecane
dimethylhexanoic
dimethylpteridin
dimethylchrysene
dimethyldiaziridine
chlorododec
chlorocyclopropyl
chlorooctyl
chlorocyclopentane
chloroacridine
chlorodecyl
chlorononyl
chloroethanimidamide
chlorothiadiazol
11λ6
ethylethane
ethylsilinane
##cyclododecan
tetrasulfanyl
oxytricyclo
oxycyclopentane
oxytetradeca
oxyhenicos
oxydecane
##icon
methylideneazaniumyl
methylidenecyclobutane
methylidenecyclodeca
dihydroiodide
sulfanylpropanehydrazide
##thianthrene
dihydroxyanthracen
dihydroxynonyl
dihydroxyarsanyl
dihydroxyhexanal
##methoxybenzene
fluorobutanoate
fluorobenzaldehyde
cyclonon
bromopropanamide
bromocyclohexa
bromotetracyclo
bromobuta
bromoundecanoate
nitrohexacyclo
nitrocyclopropyl
nitrothioxanthen
##acyclopenta
dioxopentacyclo
dioxooxane
dioxopyran
dioxopentanamide
dioxothiane
dioxoosmium
tetrahydrophenothiazin
tetrahydrophosphin
trihydroxypropan
trihydroxybenzamide
dimethoxyethoxy
dimethoxypentan
dimethoxyfluoren
dimethoxyacridine
dimethoxyquinoxaline
##sulfanylacetate
trimethylbenzaldehyde
trimethyldithiolo
trimethyloxepan
ethoxypurin
ethoxyethanamine
acetylbenzo
dichlorocyclopropane
butylpyrimidin
butylpurin
butylethane
butylbenzohydrazide
butylsilolan
enylbut
enylpropan
enylphosphonic
benzylpyrimidine
benzylselanyl
heptatetracontan
propylbutan
propylindole
propylcycloheptyl
propylpentanehydrazide
trifluorobutyl
trifluorobenzoic
trifluoroethanol
ylidenepyrazolidine
sulfanylideneethanimidothioic
diazaphosphinine
cyanopyrazole
trifluoromethyldisulfanyl
tetrabor
methanedithi
methylsulfanyloxolan
diethylbenzo
diethylbutanamide
diethylguanidine
diethylcyclohexanamine
sulfonylbutan
sulfonylpyrimidine
sulfonylthiophene
sulfonylcyclopentane
sulfonylquinazoline
hexahydroisoquinolin
hexahydroisoquinoline
phosphin
phosphacyclo
tetramethylimidazole
tetramethylaniline
tetramethylphenanthrene
tetramethylhenicosa
phenylethylsulfonyl
phenoxycyclohexyl
phenoxyethanamine
diphenylpentyl
diphenyltetracyclo
diphenylpyrazin
diphenylpyrazino
diphenylethene
diphenylcarbamimidothioate
diphenyllead
iminofluoren
chlorate
chloropyrimido
##carbamothioic
##carbonylsulfanyl
trimethoxyaniline
trimethoxyanthracene
propanoylcyclohex
carboxyhepta
acetyloxybutan
acetyloxybutanoyl
tetradecamethyl
benzoylbenzamide
benzoylspiro
benzoylpyridin
ethenyldiazenyl
octahydropentalen
##octaconta
##octanedioic
phenylmethoxyprop
phenylmethoxybenzo
phenylmethoxynaphthalene
phenylmethoxypropoxy
anilinocarbamoyl
anilinophthalazin
ylethylsulfonyl
##anediamine
oxopentylidene
iodohex
iodoquinoline
iodobenzohydrazide
diaminoanthracene
cyclopentylethoxy
cyclopentylpyrrolidine
cyclopentylethanol
##triiodide
yloxyamino
yloxyprop
yloxybenzo
yloxypyrimidine
yloxypyridine
yloxypropanoic
yloxyquinoxalin
yloxybenzohydrazide
##iridium
difluorobenzenesulfonamide
difluorofluoren
##silicon
sulfonimidoyl
cyclopropylpropanamide
pentamethyldocosa
pentamethyltricosa
oxidoindol
oxidopyrimidin
oxidoisoquinolin
undecanoyl
octadecafluoro
trichloroethanone
trichlorotitanium
ylsulfanylthiophene
ylsulfanylmethanimidothioic
dibromobutan
dibromopentan
dibromocyclohexane
methylsulfonylpropan
pentylbicyclo
pentylnaphthalene
pentylcyclohexa
dodecahydrate
trimethylsilylimino
tetrahydroxyicosa
dienylamino
trienedioic
diaminomethylamino
hexylanilino
hexylpiperidin
ynylbenzimidazole
formylpyridin
formyloxymethyl
dithiepine
33e
334
propoxyamino
propoxypyrimidin
butoxyquinolin
phenylsulfanyloxolan
phenylsulfanylnaphthalene
dichlorate
methoxycarbonyloxymethyl
dinitrobenzonitrile
dinitrobuta
nonadecanoyloxypropan
pentadecazacyclonon
triselen
dicarbodithioate
##pentanenitrile
azaniumylhexanoyl
benzylideneazanium
##nonacosane
benzhydrylphenyl
benzhydrylsulfonyl
triphenylbutan
triphenylpyrrolidine
triphenylsilyloxy
phenylethenylsulfanyl
octylidene
octylpyrrolidine
octylpropanamide
octyloxirane
##undecoxy
sulfooxyimino
dipropylbut
hexazanonacyclo
40a
carboxyethylsulfanylmethyl
octathia
octahectan
428
tetrolate
octaenoic
41a
43e
oxycarbonylphenoxy
trienylsulfanyl
dienoyloxirane
dodecylidene
methylhexanoylamino
benzoyloxycyclohexyl
pentacosafluoro
diethoxyphosphorylacetamide
diethoxyphosphorylmethanol
decylideneamino
nonylazanium
trido
oxoheptanamide
oxoheptanedioate
boranylidene
48a
methylsulfinylpropyl
phenyldiazenylbenzoyl
phenyldiazenylpyrazole
isothiochromeno
hexoxyphenoxy
hexoxybenzoyl
trichloropyr
yloxymethylbenzene
phenylcarbamoyloxymethyl
methylpentanal
49a
dicyclohexylphosphane
methylidenetetr
##seleno
dimethylpropylideneamino
ylethoxyimino
51a
undecylazanium
undecylpiperidine
azanidylethanethiolate
dimethylcyclohexanamine
tetrazacycloicosane
tetrazacyclopentadecane
carbonyloxyethyl
ylbenzenecarboximidamide
dioxidobutanedioate
methoxyiminobut
methoxyiminopyrrolidin
pentoxycarbonyl
pentoxynaphthalene
pentoxycarbonylphenyl
50a
##borolan
bromon
52a
benzylsulfonylpiperidine
54e
54a
58a
56a
phenacylsulfanylquinoline
dioxaphosphinine
methylsulfanylethylsulfanyl
55a
hydroxyoctadecanoylamino
sulfosulfanylethane
53a
trinitrobenzenesulfonate
57a
ethylazaniumylidene
phenylbenzotriazole
octoxypropan
octoxyoxane
59a
dichloromethylsulfonyl
##asilaborol
ylpentanal
sulfonyloxypropyl
nonamethylicosa
dodecanoyloxyethyl
60a
64a
benzodithiine
##selenophen
dipentylcarbamodithioate
methylnonanoic
dodecoxypropyl
61a
hexazacyclotritriacontane
chloropentadeca
63r
63a
63s
phosphaniumyl
methanidylbenzo
phosphonatoamino
benzhydrylidenehydrazinyl
formyloxypropanoylamino
methylpentadecoxy
methylpentadecane
methylpentadecanoyl
ylpropanedinitrile
67a
dioxacyclohexadecane
boranylidyne
didecoxy
pentacontaoxo
pentachloropenta
nitrosophenoxy
dihydroxyoctadecoxy
oxododecanoyl
hydroxybenzenesulfonyl
icosylcyclopropyl
boranuidyl
75s
hentetracontan
didodecylamino
triacontanoate
nitrophenothiazine
ynoylamino
10cr
butylperoxypropan
oxydecanoyl
heptazacyclotricosane
tridecoxysilane
phenylthiochromenylium
sulfonylazanidylpyridine
dibromonaphthalene
difluoropropyl
dioxothiazinan
dimethoxyphosphinothioylsulfanylbutanedioate
oxazaborolidin
sulfinamoyl
oxidobenzotriazol
pentaoxacyclopentadecane
dihexadecoxypropoxy
cyclohexylbutylamino
diethylazaniumylidenecyclohexa
diethylazaniumylidenexanthen
hexafluoropropylsulfanyl
azanidylpropylazanide
dihydroperoxydocosa
trifluoropyridin
triphosphonatooxycyclohexyl
selenopheno
trichlorophenolate
acetamidonaphthalene
ethoxycarbonylsulfanylmethanimidothioic
##idynetungsten
ylcyclopropen
selenadiazolo
##etricarbox
benzylideneoctylideneamino
diarsorate
##astannine
##terephthalaldehyde
deuteriooxy
oxacyclooctatriaconta
benzoselenepin
tetrahydrophosphinino
pentadecazacyclononatetracont
6λ4
mercur
prom
ro
##plumbyl
##ran
##ti
##enickel
##roso
##ethium
ylhexanoyl
ylundeca
yldecyl
yloctadecan
ylcyclopentylidene
ylthietane
dibenzoate
difluoromethane
methylstannane
methylphenanthro
methylphosphinate
methyladamantan
methylarsonic
methylsulfonio
methylbenzenethiolate
oxaselen
##oxazin
hydroxyhexane
hydroxyindene
hydroxyundecanoate
hydroxycycloheptyl
hydroxytridecanoic
trithiolan
trizinc
oxoalum
oxopyridazino
oxostibane
oxodiazinane
oxostib
oxobismuthane
phenylpentacyclo
phenylphenanthrene
phenylphosphinothioyl
phenylheptanoic
phenylcinnoline
phenyloctanamide
phenyliodanium
methoxyisoquinoline
methoxyaziridine
methoxycarbothioyldisulfanyl
propa
aminoimidazol
aminoquinolin
aminothieno
aminocyclohexa
aminophenol
aminoadamantane
aminocyclopentanecarbonyl
dimethylphenazin
dimethylpropanedioate
dimethylthiane
dimethylgermyl
chlorotetrazolo
chlorotetracyclo
chlorohexadeca
chlorodibenzofuran
thiazepane
thianthrene
ethylcyclohexa
ethylperoxy
ethyloxirane
ethylindolo
ethylselanyl
ethylthiochromeno
12λ6
oxypyrimidin
oxysilyl
oxycyclohexan
oxyoctyl
oxyoxolane
oxydocosanoic
##erbium
methylidenehex
methylideneheptane
methylideneoctanoic
dihydrodi
dihydroazuleno
dihydrofluoranthene
dihydroperimidine
sulfanylhex
sulfanylphenoxy
sulfanylindol
sulfanylbicyclo
sulfanylcarbonylamino
sulfanylcarbamate
sulfanyliminomethyl
sulfanylpyridazin
sulfanylazetidin
sulfanylpentane
sulfanylpropanedioate
dioxars
dioxetane
dioxazepane
dihydroxypiperidine
dihydroxybutanamide
dihydroxyhexadecan
##dioxolan
fluorobut
fluoroindole
bromopyrrolo
bromoindole
bromoanthracene
bromoacridin
nitrop
nitroheptan
nitrofluoranthen
dioxocyclopentane
dioxothioxanthen
dioxodibenzothiophen
tetrahydrooxo
trihydroxyhex
trihydroxybenzo
trihydroxybenzaldehyde
trihydroxyundecyl
trihydroxyhexadecan
pentatriacont
dimethoxybut
dimethoxyacridin
##ophenanthrene
##sulfanylpropane
trimethylcyclopenta
trimethyloxiran
trimethylimidazolidine
trimethyladamantane
trimethylgermyl
ethoxyquinoxalin
ethoxyquinazoline
ethoxybenzohydrazide
ethoxymethanimidothioic
dichlorobutanoate
dichlorobenzaldehyde
butylcyclopentyl
butyloctyl
butyltriazolo
butylazetidine
butylcyclohexene
butylthiane
enylimidazole
enylazanide
enylquinazoline
enyloxirane
octamine
heptoxymethyl
propylnaphthalen
propylguanidine
propylpentane
propylmethanimine
propylnonan
oxadiaz
ylidenecyclohexene
ylideneethanimidoyl
cyclohexanimine
cyanopentyl
##sulfonimidate
##othiolan
methylsulfanylsulfonyl
methylsulfanylbenzoic
diethylhex
diethylpiperidin
sulfonylpyrimidin
sulfonylethanimidamide
benzeneamine
cyclohexylethoxy
cyclohexylmorpholine
cyclohexylmethylidene
cyclohexylcyclohexen
hexahydroxanthen
hexahydrochromeno
phosphinan
tetramethylhex
tetramethylpyridin
tetramethylpyrido
tetramethylpyridine
decazapentacyclo
benzoxazocine
nonanoyloxypropyl
048
phenoxyquinazoline
phenoxycarbonyloxy
diphenyloxan
diphenylphenoxy
diphenylquinazolin
diphenylaniline
diphenyloxiran
diphenylnaphtho
diphenylindene
diphenylbenzenecarboximidamide
diphenylstibane
diphenylthiopyran
isocyanate
iminoxanthen
carbamoylacetamide
carbamoylpyrrolidine
carbamoyloxirane
carbamoylazanidyliminomethyl
hydrotriiodide
oxymethylimino
propanoylsulfanyl
##phosphanide
##phosphinane
acetyloxytridecyl
acetyloxypentadeca
benzoylcarbamoyl
benzoylpyridine
benzoylsulfamoyl
##octacosane
##octatriacontane
phenylmethoxycyclohexyl
phenylmethoxyindole
phenylmethoxybenzonitrile
phenylmethoxymethanimine
anilinoprop
anilinocarbamoylamino
tridecanamide
tridecamethyldo
##anediimidate
trioxid
iodoethoxy
iodopent
iodoindol
iodoimidazo
iodopyrazole
iodobenzenesulfonate
iodohexane
diaminotriaconta
diaminohexanamide
cyclopentyliminomethyl
cyclopentylcarbamimidoyl
054
051
yloxyquinazolin
yloxypropanoate
yloxycyclobut
hexadecamethyl
pentamethylhenicosa
oxidobut
oxidopyrido
oxidobenzimidazol
oxidoacridin
oxidoazaniumyl
trichlorocobalt
trichlororuthenium
hexaenal
fluorophen
ylsulfanylpiperidine
dibromoacetate
dibromopyridine
dibromoaniline
dibromohexane
dibromorhodium
methylsulfonylbenzenesulfonamide
pentylpurin
pentylcyclohexan
thiohypo
tetrahydroxychromen
tetrahydroxybenzo
tetrahydroxynaphthalen
tetrahydroxypentanal
dienylcyclopent
chloroethylideneamino
nonadecafluoro
nonadecaoxo
diethoxyprop
diethoxypropan
ylpropylimino
ylpropylcarbamoyl
ylpropylcarbamoylamino
ynylfuran
hexaoxide
hexapentacontan
ethylidenebicyclo
ylsulfonylbenzene
ylsulfonylpyridine
heptamethylnon
##ropropan
formyloxyethyl
propoxybenzaldehyde
propoxybenzohydrazide
ethylsulfanylprop
ethylsulfanylbutanoic
ethylsulfanylmethanethioate
enoxyquinoxalin
phenylsulfanylimidazol
phenylsulfanylpyrazole
phenylsulfanylbutanoate
phenylsulfanylpurine
dinitroethane
heptanehydrazide
benzylsulfanylbenzoate
benzylsulfanylpyrimidin
benzylsulfanylpropanamide
methoxymethylsulfanyl
diacetyloxypropoxy
ethoxycarbonylpiperazine
ethoxycarbonyltriazol
nonadecanoyloxypropyl
##thallium
pentadecanoic
diazaundecacyclo
benzamidohexanoate
dicarbothioamide
trimethylsilyloxyphenoxy
trimethylsilyloxysilyl
trimethylsilyloxypentan
azaniumylpropanoylamino
butanoyliminocyclohexa
methoxypropylcarbamoylamino
nitrosohex
nitrosobenzo
nitrosofluoren
##phenanthrylen
pentahydroxyhexanoyl
carboxymethylsulfonyl
sulfoethanethiolate
ylpropanal
triphenylen
adamantyliminomethyl
adamantylcarbamoylamino
adamantylazanide
##octadecanamide
octylcarbamoyl
octylfuro
octyloctan
##tetradecanoyloxy
triacetyloxybenzoyl
iodoni
sulfooxypropanoyl
dibutylcarbamoyl
dipropylbenzoate
dipropylbenzene
dipropylaniline
dipropylpentanamide
azidobenzoyl
heptaenedioic
carboxyethylidene
aminoethylcarbamoyl
octaoxanonacyclo
octapentacont
nitropyrano
octaenoate
oxacyclododecane
5bh
chloropropanoyloxy
411c
phosphonobenzoic
tetrachlorodibenzothiophene
phenylbutylideneamino
dodecylsulfonyl
dodecylideneamino
cycloheptylmethyl
cycloheptylprop
tetramethoxyoxan
tetramethoxyhexanal
propylsulfanylbenzene
propylsulfanylpyridin
propylsulfanylpropane
nitrobenzenesulfonohydrazide
nitrobenzenecarboximidate
##oxathiolan
tetrafluoroethene
tetrafluoroethylsulfonyl
diethoxyphosphorylbutan
decylcyclopropyl
dihydroxypropylidene
phenoxyethylidene
oxoheptanedioic
oxohexanenitrile
phenyldiazenylphenoxy
phenyldiazenylpyridin
hexoxycarbonylamino
##atetraene
trichloropyrimidine
hexahydroxytriacontyl
formamidomethyl
dicyclohexylbenzene
hydroxypentane
propylidenefuran
henicosanoylamino
ylethoxycarbonylamino
ethylhexylideneamino
azanidylcyclopentyl
diynoyloxy
heptafluorobutan
propanoyloxyundec
methoxyiminoindol
pentoxymethoxy
hexaenylideneamino
bromoethylsulfanyl
trityloxyethyl
##arsenic
dimethylbenzenecarbothioamide
##allanuide
triazacyclopentadecane
dichloropurin
##cyclopropanamine
tridecylthiophene
isocyanatoethyl
methylsulfanylethylidene
methylsulfanylethylideneamino
sulfosulfanylacetyl
hydroxytetradecan
tetradecyloctadecanoate
ylpentanoyl
methylsulfanylpropylcarbamoyl
cyclooctylbenzamide
pentachlorobuta
yliminocyclohexa
dimethoxyphosphorylformate
fluoranylpropan
fluoranylbenzene
tetraphenyltricyclo
oxathiino
chloropurine
octoxybenzene
oxooctacosa
butanoyloxyethyl
62r
azacyclohexadec
azacyclotetracosa
azacyclopentadeca
azacyclotridecan
phosphonatooxypropanoate
##anuid
##selenoate
isocyanoethenyl
disulfooxychromen
iodanylethenyl
methylnonanoyl
methyldecanamide
diphenylbutanediamide
yloxycarbonylbenzoic
pentacosanoate
diphenoxyphosphorylmethyl
oxazaphosphinin
66r
methylcarbamothioylhydrazinylidene
tetrathiadispiro
tetrazinan
tripropylstannane
methylpentadecanamide
benzoselenadiazol
acetylsulfanylethoxy
ethylsulfanylmethylsulfanyl
octylsulfanylpropyl
dioxacycloicosa
sulfanylbenzenediazonium
benzhydryloxybut
hexanoyloxymethyl
trichloropropanoate
trideuteriomethoxy
nitromethylideneamino
triynal
dimethyloctanal
tetrathiatetracyclo
heptacosyl
dibenzylidenepiperidin
dichlorophosphinothioyl
ylsulfinylmethyl
acephenanthrylene
80s
ethoxybenzenediazonium
84s
##sulfonylmethylsulfonyl
phenylethenesulfonate
hydroxydocosanoic
sulfinobutyldisulfanyl
##cycloheptylidene
methyloctadecanoyloxy
hydroxyicosyl
hydroxyicosanoic
tetraoxatetrasilocan
dimethylcycloocta
undecafluorocyclohexane
azanidylsulfonylbenzoate
methylidenenonanoic
heptachlorotricyclo
dinitropropane
tellurite
trisulfooxyoxan
tetranitrate
oxothioxanthene
hexabromodibenzofuran
disulfoanilino
germaspiro
##aselenole
triphenylphosphaniumylmethyl
tetramethylcyclobutylidene
iodothiophen
benzoxadiazine
triazadiborolidine
oxamoylamino
ydroxy
dithiarsolan
carbothialdehyde
dioxazaborocan
enedithioate
terephthalate
oxacyclodotetraconta
methanedithiol
promethium
oxaselenolan
oxoalumanyloxy
tridecamethyldopentaconta
2b
ein
tol
yc
##erium
##einium
##ryl
##belium
##uene
##tat
##trin
##molybdenio
##cerium
ylfluoren
yltrideca
ylaziridin
ylethanethiol
yltridecan
ylhexadecan
ylphosphonamidic
distrontium
methyltri
methylacetohydrazide
methylfluorene
methylstannyl
##oxymethane
oxazepane
oxaphosphinine
oxazepino
hydroxypurin
hydroxypyrido
hydroxyazetidin
hydroxyacetonitrile
hydroxyformamide
hydroxyethanethiolate
hydroxyundecanoic
hydroxyethanesulfonate
##azolidine
##ethoxycarbonylamino
trim
tripropan
tributan
tripentaconta
oxotetrazol
oxosilane
oxoethane
oxoars
oxoacetohydrazide
oxooctane
oxoadamantane
oxocyclobutyl
oxotridecanoic
oxothiadiazolo
phenylthiolan
phenylanthracen
phenyldibenzofuran
phenylthian
phenylethanethiol
phenylhydroxylamine
phenylphosphinate
phenyladamantan
phenylthiopyran
methoxypyrrol
methoxyoct
methoxycarbamoyl
methoxydeca
methoxymethanol
methoxyethene
methoxycarbothioyl
propanedial
aminobenzenesulfonamide
aminopentane
aminoindazol
aminocarbamimidothioate
dimethyloctacyclo
[...]
